<unk>	0
<s>	0
</s>	0
▁।	-2.99208
▁	-3.34231
ं	-3.69578
,	-3.7802
ः	-3.81635
-	-4.12399
म्	-4.42842
स्य	-4.48838
े	-4.75843
▁च	-4.87691
▁अस्ति	-4.94628
।	-4.97632
.	-4.98308
▁इति	-5.08743
ा	-5.12237
▁आसीत्	-5.43266
ाः	-5.45054
·	-5.60411
▁अपि	-5.61153
▁एव	-5.63567
▁भवति	-5.69839
▁न	-5.7395
▁सन्ति	-5.756
ेन	-5.78428
ि	-5.83081
▁अस्य	-5.8471
ो	-5.90162
ी	-5.94218
ानि	-5.94863
▁सः	-6.0047
▁तस्य	-6.00683
्	-6.03554
▁'	-6.07088
ेषु	-6.12561
:	-6.13789
▁“	-6.18353
ानां	-6.24265
▁स्म	-6.25811
▁अभवत्	-6.30098
▁q	-6.30591
▁स	-6.31011
ाय	-6.31044
▁�	-6.32028
▁अत्र	-6.32867
म	-6.35383
'	-6.3577
▁वर्षे	-6.35932
▁सह	-6.36395
▁अ	-6.36735
X	-6.37184
”	-6.38188
ात्	-6.39621
▁अतः	-6.437
▁अस्मिन्	-6.44526
न	-6.45043
▁तमे	-6.46529
▁यत्	-6.55394
▁तत्र	-6.59234
ौ	-6.59875
तः	-6.62264
ैः	-6.63335
क	-6.64223
▁तदा	-6.73268
र	-6.74299
▁|	-6.7456
ान्	-6.75513
▁"	-6.75828
श	-6.77365
▁इदं	-6.78705
▁तु	-6.79836
▁सा	-6.79952
▁जनाः	-6.8237
▁वर्तते	-6.82592
▁नाम	-6.83095
या	-6.84902
’	-6.853
न्	-6.8546
▁भारतस्य	-6.86624
ता	-6.87203
्य	-6.88623
"	-6.88702
▁–	-6.89473
त	-6.90241
▁स्व	-6.9076
▁तथा	-6.94101
▁तेन	-6.95577
ति	-6.99131
ेण	-6.99428
�	-7.01238
स	-7.0181
▁वा	-7.03656
राज्यस्य	-7.03932
▁आ	-7.04189
▁ततः	-7.04237
ल	-7.0559
श्च	-7.06042
▁भवन्ति	-7.06366
▁इत्यस्य	-7.08418
▁अयं	-7.09782
▁यदा	-7.10062
याः	-7.10553
▁प्रति	-7.11539
▁-	-7.13548
स्	-7.14529
त्	-7.1474
त्वेन	-7.16153
योः	-7.17117
▁•	-7.17483
▁ते	-7.17849
▁आसन्	-7.18264
▁‘	-7.19247
▁यथा	-7.19321
व	-7.21022
▁किन्तु	-7.21315
▁प्र	-7.2145
▁परन्तु	-7.22552
नगरं	-7.23318
▁तस्मिन्	-7.23358
य	-7.23887
▁वि	-7.24132
▁हि	-7.24306
▁एतत्	-7.25182
ना	-7.25896
नगरे	-7.27946
▁मण्डले	-7.29431
मी	-7.29472
मस्ति	-7.30969
▁अकरोत्	-7.32985
मेव	-7.33286
/	-7.34401
▁मण्डलस्य	-7.34747
मपि	-7.35903
नगरस्य	-7.36349
प	-7.36863
▁तत्	-7.38389
र्	-7.40256
नि	-7.40924
वि	-7.41395
तया	-7.42425
रूपेण	-7.46215
वान्	-7.46748
ज	-7.47161
▁भारतीय	-7.48744
▁तस्याः	-7.49089
सु	-7.49206
द	-7.49626
ेभ्यः	-7.50383
षु	-7.51003
▁करोति	-7.5119
▁॥	-7.51529
मा	-7.51937
ते	-7.52117
▁स्थितम्	-7.52217
अ	-7.5296
▁एवं	-7.53224
ल्	-7.54538
▁कि	-7.54973
▁मण्डलम्	-7.55566
▁कृत्वा	-7.55598
मासस्य	-7.55623
ाणां	-7.5576
▁दिनाङ्के	-7.57926
▁वर्षस्य	-7.60282
▁तेषां	-7.60815
▁सर्व	-7.61353
▁स्वस्य	-7.61901
▁एषः	-7.6272
ह	-7.63102
▁श्री	-7.63124
0	-7.65635
रा	-7.66155
ीय	-7.67608
पि	-7.67942
ानाम्	-7.68115
च	-7.69253
▁विद्यते	-7.69438
प्र	-7.70129
▁दूरे	-7.70554
▁कुर्वन्ति	-7.71965
▁एकः	-7.72323
ञ्च	-7.72812
नगराय	-7.73996
s	-7.74072
▁कर्तुं	-7.74149
ु	-7.74242
▁कृतवान्	-7.7496
▁तेषु	-7.75617
▁क	-7.75646
ट	-7.75716
▁राजा	-7.75918
▁अनेन	-7.76316
▁विषये	-7.76835
▁कृतम्	-7.77038
ाणि	-7.77085
▁सर्वे	-7.77447
ण	-7.77957
▁क्रि	-7.78066
▁तमस्य	-7.78959
▁य	-7.79687
ार्थं	-7.79756
ड	-7.79906
'-	-7.80279
▁सु	-7.80713
▁नास्ति	-7.80716
▁यावत्	-7.80975
▁एतस्य	-7.81325
”,	-7.8247
▁धर्म	-7.82976
▁बहु	-7.83525
क्	-7.83772
का	-7.83999
▁जन्म	-7.84325
▁प्राप्यन्ते	-7.84394
▁भगवतः	-7.86132
ग	-7.86311
भिः	-7.8669
▁है	-7.86893
ादि	-7.87087
यां	-7.87313
▁एक	-7.87592
▁उप	-7.87801
ै	-7.87889
▁नगरस्य	-7.88065
▁ई	-7.88154
▁शक्यते	-7.88694
यति	-7.88984
▁कृते	-7.89377
▁भारते	-7.89457
▁अर्थात्	-7.90039
▁तथापि	-7.90271
▁इत्यादयः	-7.90427
तमे	-7.90522
नगरात्	-7.92216
▁de	-7.92245
िक	-7.92859
▁राज्यस्य	-7.93255
▁यदि	-7.93501
तु	-7.93883
▁इत्यादि	-7.93906
ला	-7.94037
▁महा	-7.94633
▁s	-7.94637
▁पूर्व	-7.95158
▁दृश्यते	-7.95306
री	-7.95459
भ्यः	-7.95599
ां	-7.9671
सि	-7.96857
ion	-7.96934
▁मम	-7.97143
▁?	-7.97342
▁पञ्च	-7.97538
▁जातः	-7.9765
▁म	-7.97893
मण्डलस्य	-7.97913
2	-7.98182
ब	-7.98957
▁मे	-7.98982
▁कार्यं	-7.9905
रि	-8.00197
▁त्रुटि	-8.00381
▁नि	-8.00399
▁नगरे	-8.00414
▁अनन्तरं	-8.01069
ष	-8.01481
काले	-8.02341
▁कोई	-8.02791
▁कर्म	-8.02947
्यूल	-8.0299
▁ऐसा	-8.03273
पुर	-8.03275
▁नही	-8.03288
script	-8.03492
▁काले	-8.03522
▁त	-8.03794
▁मॉड	-8.03952
स्क्रिप्ट	-8.03977
मण्डलम्	-8.04003
Settlement	-8.0408
hort	-8.04131
▁प्राप्यते	-8.04242
ङ्ग	-8.04626
▁मुख्य	-8.05059
▁ब्रह्म	-8.05147
▁बहवः	-8.05301
वा	-8.05478
मिति	-8.05891
▁घोरी	-8.06413
ोऽपि	-8.06449
▁अन्य	-8.0695
▁पुनः	-8.07728
▁कृता	-8.0776
्या	-8.08033
▁कृतः	-8.08441
िका	-8.09104
▁प	-8.09158
▁प्राप्तवान्	-8.09391
राज	-8.09805
ित	-8.1001
▁तर्हि	-8.1012
▁मध्ये	-8.10149
▁समीपे	-8.10219
▁राज्ये	-8.11075
राज्ये	-8.11193
▁केवलं	-8.11296
▁ये	-8.11491
नी	-8.11515
▁18	-8.12054
▁1	-8.12116
ट्	-8.12208
▁जनसङ्ख्या	-8.12733
▁तं	-8.1298
वती	-8.13682
▁’	-8.13707
विषये	-8.14416
▁एकं	-8.1466
▁का	-8.14983
...	-8.15597
▁भगवान्	-8.1566
▁मा	-8.15799
नां	-8.16118
सा	-8.1619
▁सं	-8.16687
▁कथ्यते	-8.16897
▁एत	-8.17009
▁सम	-8.17246
त्वं	-8.18568
▁राज	-8.18651
▁नाम्ना	-8.1866
▁अहं	-8.18747
▁भवेत्	-8.19211
ैव	-8.19456
मन्दिरं	-8.19941
ू	-8.19967
▁कश्चन	-8.2024
▁इव	-8.20468
▁तानि	-8.20678
▁बहूनि	-8.20725
▁इत्यादीनि	-8.20879
▁एषा	-8.20895
न्ति	-8.20936
▁उत्तर	-8.2163
=	-8.21872
्याः	-8.2195
▁देहली	-8.2207
लि	-8.23078
द्	-8.23223
▁देव	-8.23725
आ	-8.23915
▁प्रथम	-8.24284
ोऽस्ति	-8.24745
श्	-8.24834
▁यः	-8.24903
ापि	-8.25272
संस्कारः	-8.25541
यो	-8.26348
नं	-8.26461
▁भारत	-8.26699
देशस्य	-8.26735
://	-8.27066
भाषा	-8.27293
जन	-8.27477
▁http	-8.28105
▁किञ्चन	-8.28601
जनाः	-8.28893
▁पिता	-8.29036
▁स्तः	-8.29118
▁राष्ट्रिय	-8.29237
ली	-8.29369
▁नगरं	-8.29416
स्तु	-8.29862
यः	-8.30537
ार्थ	-8.30695
कर	-8.30695
▁विभिन्न	-8.30831
▁या	-8.31155
▁राजधानी	-8.31189
ने	-8.31397
ऽपि	-8.31427
▁यत्र	-8.31486
▁अस्याः	-8.31652
धर्म	-8.32166
भि	-8.32268
▁वेद	-8.3258
सम्बद्धम्	-8.32616
मि	-8.32648
▁जन	-8.3312
दृष्ट्या	-8.3314
▁चेत्	-8.33214
कि	-8.33228
3	-8.3339
▁तथैव	-8.33428
▁तद्	-8.33771
▁जल	-8.33805
ोप	-8.34741
▁ज्ञान	-8.34795
▁दृष्ट्वा	-8.34948
ख	-8.35021
मासीत्	-8.35142
▁परं	-8.35648
क्षेत्रे	-8.35996
▁प्रमुख	-8.36104
▁उपरि	-8.36453
▁श	-8.36619
रु	-8.36658
▁ब	-8.37153
ायाः	-8.37443
नगरम्	-8.37473
▁अतीव	-8.37613
▁भविष्यति	-8.37731
▁3	-8.37801
्यते	-8.37882
कः	-8.37907
▁!	-8.37989
कर्म	-8.38009
ानन्तरं	-8.3847
वत्	-8.38506
▁नगरम्	-8.38577
राम	-8.39136
▁व	-8.39437
▁लघु	-8.39576
मण्डलं	-8.39579
कार	-8.39631
तायाः	-8.39883
॥	-8.39898
▁प्राचीन	-8.40053
▁क्रियते	-8.40164
▁इत्येषः	-8.40621
6	-8.41147
▁इत्यनेन	-8.41189
▁सति	-8.41262
▁एते	-8.41296
त्र	-8.41375
▁दक्षिण	-8.41433
▁इय	-8.41635
▁ए	-8.41865
थ	-8.41975
तो	-8.4199
नदी	-8.42028
▁नव	-8.42086
',	-8.42243
▁ग्रेगोरी	-8.42527
▁यतो	-8.42719
5	-8.42772
▁मन्यते	-8.42798
▁शिव	-8.43142
▁उच्यते	-8.43169
▁गच्छन्ति	-8.44078
▁केचन	-8.44239
ष्ट	-8.44428
▁अभवन्	-8.44452
राज्यं	-8.44599
▁मुम्बई	-8.44869
मण्डले	-8.45134
रो	-8.4514
▁काल	-8.4517
19	-8.45252
▁कार्य	-8.45607
वन्तः	-8.45645
पर्यन्तं	-8.45794
▁रचना	-8.4613
यन्ति	-8.46151
▁संस्कृत	-8.46198
त्व	-8.46504
▁केन्द्रम्	-8.46805
प्रदेशे	-8.46919
▁राम	-8.473
दि	-8.47691
▁सन्	-8.48013
▁सप्त	-8.48655
i	-8.4871
▁समीपस्थ	-8.48882
भ	-8.49073
▁प्रसिद्धः	-8.49224
▁दिने	-8.4942
▁अधिक	-8.49468
वर्षः	-8.49576
ेश्वर	-8.49779
▁परि	-8.49823
▁अव	-8.4998
9	-8.50043
%	-8.5006
▁इत्य	-8.50081
द्वारा	-8.50111
▁गुजरातराज्यस्य	-8.50309
को	-8.50375
स्त	-8.50445
▁शब्द	-8.5054
▁5	-8.5065
▁अति	-8.5066
▁यद्यपि	-8.50724
▁कोऽपि	-8.509
▁स्यात्	-8.50932
▁देश	-8.50951
ː	-8.5097
▁उ	-8.51254
▁2	-8.51324
देव	-8.51799
▁अत्यन्त	-8.52374
▁पृथ्वीराजस्य	-8.52394
...2	-8.52487
▁अनु	-8.52942
e	-8.52993
ोऽ	-8.53117
▁सर्वत्र	-8.53159
▁4	-8.5326
▁कारणेन	-8.53265
त्य	-8.53529
तां	-8.53909
ाद्	-8.53935
in	-8.5441
8	-8.54724
▁देशस्य	-8.54833
ड्	-8.54999
▁ज	-8.55063
जी	-8.55172
▁कुर्वन्	-8.55185
दा	-8.55392
यन्	-8.55408
देशे	-8.55577
ाव	-8.55637
समये	-8.55726
ाद	-8.55783
▁सङ्गीत	-8.56152
मु	-8.56166
तयोः	-8.5617
▁यतः	-8.56354
ेऽपि	-8.56659
इ	-8.5691
ाणाम्	-8.56975
▁सि	-8.56989
▁द	-8.57194
▁सर्वेषां	-8.57197
d	-8.57218
▁विविध	-8.57288
4	-8.57554
भाव	-8.5798
▁जाता	-8.58129
▁ज्ञायते	-8.58322
▁विश्व	-8.58358
▁कर्णाटक	-8.58449
▁स्थापना	-8.58616
▁12	-8.5878
▁प्रसिद्धम्	-8.58805
▁प्राप्य	-8.5885
िः	-8.58854
▁अवदत्	-8.59398
a	-8.59568
▁समये	-8.59633
सी	-8.59718
ये	-8.59867
▁17	-8.60071
▁कृत	-8.60091
के	-8.60258
रूप	-8.60389
▁माता	-8.60425
िता	-8.60652
▁पूर्वं	-8.60961
स्व	-8.60968
▁एतेषा	-8.61074
▁अत	-8.61118
▁गन्तु	-8.61269
▁यद्	-8.61347
▁मनसि	-8.61469
सं	-8.61517
▁अथवा	-8.61842
पाद	-8.61986
▁6	-8.62189
▁कु	-8.62493
▁भाव	-8.62544
यै	-8.62559
▁कृष्ण	-8.6268
▁स्थितं	-8.62863
यन	-8.62961
7	-8.62971
▁काव्य	-8.63131
▁ह	-8.63307
...1	-8.63309
▁जीव	-8.63452
▁विशिष्ट	-8.63478
▁रस	-8.63615
▁ओडिशा	-8.63785
काल	-8.63938
▁10	-8.64025
ऽ	-8.64191
त्वात्	-8.64431
▁पर	-8.64564
▁द्वितीय	-8.64566
यत्	-8.64617
देश	-8.64685
▁भूत्वा	-8.64849
▁त्रि	-8.6489
जा	-8.64936
▁विस्तारः	-8.64944
▁यज्ञ	-8.6526
▁तस्मात्	-8.6537
णा	-8.65375
▁सर्वकारेण	-8.6545
▁स्थितः	-8.65601
▁आङ्ग्ल	-8.65678
▁न्याय	-8.66041
▁अभूत्	-8.66087
▁इ	-8.66196
▁बसयानानि	-8.66259
▁मूल	-8.66363
पद	-8.66539
▁भाषा	-8.66548
ळ	-8.66893
▁अन्यतमम्	-8.66965
▁अपर	-8.67332
▁अस्माक	-8.67519
▁के	-8.6775
ध	-8.6808
▁नासीत्	-8.68094
ज्ञान	-8.68238
नु	-8.68405
▁कोलकाता	-8.68557
वेद	-8.68604
क्ष	-8.68605
डि	-8.68725
▁स्थलं	-8.68962
पा	-8.69035
▁कथा	-8.69167
▁युद्ध	-8.69356
ज्	-8.69361
pedia	-8.69757
ई	-8.69911
▁प्रायः	-8.69913
▁लोक	-8.70062
▁पद	-8.70206
▁फल	-8.70239
▁गत्वा	-8.70453
▁ग	-8.70509
o	-8.71064
▁राज्य	-8.71095
▁सरदार	-8.7167
्वा	-8.7176
▁डॉ	-8.7182
मान	-8.71839
▁अन	-8.71862
गुण	-8.71873
ऽस्मिन्	-8.72077
यितुं	-8.72183
▁वर्ष	-8.72401
▁किमपि	-8.72621
▁ना	-8.72731
▁एका	-8.73092
▁अनेक	-8.73133
पर	-8.73186
स्थ	-8.73376
▁तदनन्तर	-8.73576
▁जनानां	-8.7366
▁बेङ्गळूरु	-8.73812
▁परम	-8.73862
प्रदेशस्य	-8.74134
▁पृथ्वीराजः	-8.74376
ान	-8.74629
▁Cal	-8.75142
▁येन	-8.75215
वे	-8.75369
endo	-8.75454
▁=	-8.75461
▁प्रकारेण	-8.75533
▁ब्राह्मण	-8.75757
मे	-8.75819
मिदं	-8.75883
▁को	-8.75923
▁15	-8.76661
▁विशेष	-8.76691
ितः	-8.7676
कालगणनाया	-8.76851
न्त	-8.76916
)	-8.76929
▁अन्तिम	-8.77043
▁भागः	-8.7708
▁प्राप्तुं	-8.77278
▁प्रधान	-8.77445
1	-8.77458
▁बाल	-8.77467
ितवान्	-8.77483
टि	-8.77868
▁अकुर्वन्	-8.78289
▁जीवन	-8.78481
याम्	-8.78501
▁सिद्ध	-8.79049
▁साधारण	-8.79334
▁पुत्र	-8.79406
वर	-8.7956
ाङ्ग	-8.79817
www	-8.79841
▁हिन्दु	-8.80059
▁तया	-8.80544
▁डा	-8.80638
तर	-8.80744
न्ते	-8.80832
▁वीक्षणीयस्थलानि	-8.80861
▁अर्थ	-8.80898
▁असम	-8.80949
▁11	-8.80957
t	-8.80995
▁पुरा	-8.81027
लु	-8.8111
u	-8.81145
रे	-8.81148
▁तमः	-8.81257
▁पूर्ण	-8.81423
िनः	-8.81526
▁16	-8.81611
▁तद	-8.81842
▁वसन्ति	-8.8186
▁सत्य	-8.81953
▁इत्यप	-8.8204
परि	-8.82059
ɑ	-8.82276
▁स्वातन्त्र्य	-8.82291
व्य	-8.82314
ञ्ज	-8.82682
▁योग	-8.82689
h	-8.82797
कं	-8.82974
▁निर्	-8.83304
▁मी	-8.83333
▁पुत्रः	-8.83492
न्न	-8.83576
ले	-8.83783
▁विना	-8.83824
▁हे	-8.84152
हि	-8.84195
ोपरि	-8.84239
▁गुरु	-8.84335
▁जातम्	-8.8442
▁आत्म	-8.84559
▁सिंह	-8.84657
च्छ	-8.84674
▁दश	-8.84698
▁सामान्य	-8.84969
नगर	-8.85004
▁इत्येतत्	-8.85052
▁मन्त्र	-8.85085
ेति	-8.85123
▁निर्माणं	-8.85137
िया	-8.85139
▁धन	-8.85286
▁विवाह	-8.85296
▁किं	-8.85348
जल	-8.85454
ाश्च	-8.85559
▁नित्य	-8.85563
हा	-8.85608
▁8	-8.85633
ानुसारं	-8.85783
▁अगच्छत्	-8.85841
▁उल्लेखः	-8.86167
▁पाद	-8.86298
▁वीर	-8.86578
स्त्री	-8.86937
▁स्थाने	-8.8694
▁यस्य	-8.86942
ादीनां	-8.86974
ानु	-8.86989
पूर्व	-8.87137
▁पुं	-8.87154
महानगरे	-8.87265
▁कृतवन्तः	-8.87305
▁गो	-8.87323
▁ओ	-8.87339
▁वर्ण	-8.87339
।।	-8.875
▁20	-8.87517
▁सूर्य	-8.8759
दर्शन	-8.87673
नामकः	-8.87713
▁भू	-8.87808
िनी	-8.88399
वर्ण	-8.88479
...3	-8.88571
सम	-8.88866
रीत्या	-8.8888
▁ग्रन्थ	-8.88902
शास्त्र	-8.88912
▁श्रुत्वा	-8.89008
से	-8.89025
ए	-8.89054
▁सर्वदा	-8.89134
▁मध्यप्रदेशराज्य	-8.89212
▁विषय	-8.89316
▁श्रेष्ठ	-8.89395
▁राज्ञः	-8.89396
नाम	-8.89614
▁नगर	-8.89805
▁पञ्जाब	-8.8987
▁इत्याख्यः	-8.89939
▁चतुरस्र	-8.90155
▁गान्धी	-8.90258
n	-8.90302
▁विमानस्थानकं	-8.90315
बा	-8.90357
▁स्वयं	-8.90485
▁केरळ	-8.90505
▁14	-8.90627
कल	-8.90864
▁रा	-8.9101
▁अग्रे	-8.91125
प्प	-8.91273
▁वै	-8.91413
▁रेलस्थानकम्	-8.91438
▁स्थानं	-8.91506
▁कर	-8.91629
ती	-8.91929
▁शास्त्र	-8.91991
वादः	-8.92103
▁अन्ते	-8.92112
m	-8.92152
▁नदी	-8.92176
लोक	-8.92279
चि	-8.92373
रस	-8.92444
▁अन्ताराष्ट्रिय	-8.92457
▁मया	-8.92482
▁कला	-8.92541
p	-8.92651
ायां	-8.92678
देवी	-8.92772
कु	-8.93041
श्री	-8.93063
▁ति	-8.9311
▁वदन्ति	-8.93247
▁दृश्यन्ते	-8.93289
भूत	-8.93303
r	-8.9334
गत	-8.93359
°	-8.93526
योग	-8.93602
▁साक्षरता	-8.93875
▁पर्यन्तं	-8.93905
▁तः	-8.94098
▁गुण	-8.94145
▁श्लोकः	-8.94266
ार्थम्	-8.94331
k	-8.94407
▁राममोहन	-8.94487
काः	-8.94568
▁गतवान्	-8.94585
▁13	-8.94597
▁ज्ञानं	-8.94667
▁त्यक्त्वा	-8.94738
डा	-8.94832
त्त	-8.95084
▁वयं	-8.95154
▁प्रथमं	-8.95188
नाथ	-8.95295
जि	-8.95416
▁कर्तुम्	-8.95567
▁निवसन्ति	-8.9567
राव	-8.95722
सार	-8.95787
सान्द्रता	-8.95794
महा	-8.95961
उ	-8.96045
ार	-8.96082
वाद	-8.9622
नम्	-8.96398
जनानां	-8.96505
सर	-8.96638
यं	-8.96762
वास	-8.96801
मन	-8.96852
▁दशके	-8.9704
▁वदति	-8.97136
▁द्वे	-8.97159
मूल	-8.97224
▁प्रापत्	-8.97246
▁अनेके	-8.97268
ण्ड	-8.97367
▁अनुपात	-8.97407
ङ्क	-8.97471
▁एकस्मिन्	-8.97521
▁क्रीडा	-8.9757
▁तौ	-8.97652
▁दक्षिणे	-8.97851
▁जय	-8.98088
धा	-8.98133
▁द्वौ	-8.98376
▁तस्मै	-8.98427
▁कथयति	-8.98445
▁जैन	-8.98665
▁महाराष्ट्रराज्य	-8.99021
▁काम	-8.99092
▁अयम्	-8.99131
▁अप	-8.99244
पाल	-8.99337
▁विजय	-8.99386
न्द	-8.9942
युक्त	-8.99466
▁स्वतन्त्र	-8.99578
हर	-8.99626
▁/ˈ	-8.99677
कृत	-8.99723
मय	-8.99763
ान्तर	-8.99828
फल	-8.99908
मन्दिरम्	-9.00257
ग्रामे	-9.00311
▁प्रसिद्ध	-9.00335
/)	-9.00361
ठ	-9.00402
▁मु	-9.00408
▁कथं	-9.00469
▁चित्र	-9.0048
▁समान	-9.00533
▁राष्ट्र	-9.00591
नाम्	-9.00674
भगवद्गीतायाः	-9.00757
▁विशाल	-9.00782
▁आस्ताम्	-9.00818
g	-9.01049
▁भगवता	-9.01193
▁चन्द्र	-9.01211
व्यवस्था	-9.01397
धि	-9.01493
▁7	-9.01665
घ	-9.01991
▁पश्चिम	-9.02097
ण्ट	-9.0219
दु	-9.02242
र्थ	-9.02256
नो	-9.02347
राज्य	-9.02421
मुख	-9.02569
▁किलोमीटर्मिते	-9.02598
मत	-9.02649
भारतीय	-9.02701
तैः	-9.0291
्यः	-9.03059
▁विमानस्थानकम्	-9.03074
▁अष्ट	-9.03384
कुल	-9.03484
▁ऐ	-9.03485
▁इत्येत	-9.03585
नद्याः	-9.03617
▁एकदा	-9.03631
शब्द	-9.03703
▁दिनम्	-9.03787
▁तस्यां	-9.0391
ात्मक	-9.03962
विद्या	-9.04151
▁राज्ञा	-9.04166
ादयः	-9.04203
▁आधुनिक	-9.04287
▁वर्णनं	-9.04294
बल	-9.0447
▁अभि	-9.04586
यित्वा	-9.04597
▁केन्द्र	-9.04633
▁गृह	-9.04644
भव	-9.04825
विषय	-9.05051
▁ल	-9.05135
▁इदम्	-9.05151
िताः	-9.05223
▁धार्मिक	-9.05257
▁अर्थः	-9.0544
▁विश्वस्य	-9.05449
्यां	-9.05564
▁परितः	-9.05638
ृ	-9.0566
▁से	-9.0585
▁प्रा	-9.05908
चतुरस्रकिलोमीटर्	-9.05997
▁उक्तवान्	-9.06063
▁नूतन	-9.06093
टी	-9.06153
▁मानव	-9.063
▁तादृश	-9.0657
▁2001-2011	-9.06579
▁9	-9.06756
▁अन्यतमः	-9.06802
▁विद्यमान	-9.06926
▁रेलस्थानकं	-9.06963
▁किञ्च	-9.07038
▁एतादृश	-9.07068
▁सनातन	-9.07095
च्च	-9.07137
▁एता	-9.07172
स्ति	-9.07215
▁मण्डल	-9.07216
▁पितुः	-9.07227
;	-9.07368
▁भवतः	-9.0742
▁नियमितरूपेण	-9.07444
ष्	-9.07523
ङ्	-9.07625
▁प्राण	-9.07824
भाषायाः	-9.07873
ग्	-9.0803
म्ब	-9.08231
▁विद्या	-9.08344
की	-9.0835
मासे	-9.08385
ैक	-9.08417
गा	-9.08664
▁पुरुष	-9.0874
▁किञ्चित्	-9.08858
भाग	-9.08878
▁दृढ	-9.08953
▁अस्	-9.0901
▁शक्नुवन्ति	-9.09258
▁पश्चात्	-9.09328
कम्	-9.0943
▁इत्येव	-9.09505
▁भिन्न	-9.09512
▁दण्ड	-9.09541
▁बालक	-9.09589
▁महात्मा	-9.09675
ध्य	-9.0975
ितम्	-9.09869
▁किलोमीटरमिते	-9.09912
पु	-9.10154
▁उक्त	-9.1017
▁बौद्ध	-9.10229
नामकं	-9.10383
कारः	-9.10413
▁उत्तम	-9.10426
▁गीत	-9.10522
▁प्राप्त	-9.10675
▁विचार	-9.10738
▁विद्यन्ते	-9.10742
▁अन्ये	-9.10761
▁कदाचित्	-9.10813
▁द्वादश	-9.10817
विशेष	-9.1087
▁प्रथमः	-9.10967
▁अवशिष्ट	-9.11263
कला	-9.11346
▁उन्नत	-9.11376
जनसङ्ख्यावृद्धिः	-9.11386
द्य	-9.11433
▁स्थानम्	-9.115
10	-9.11622
▁युद्धं	-9.11625
ोऽयं	-9.11693
com	-9.11796
▁सुन्दर	-9.11964
कथा	-9.1197
ाभ्यां	-9.12015
गढ	-9.12056
फ	-9.12237
द्वयं	-9.12251
▁गृहे	-9.12484
▁सुख	-9.12603
डी	-9.12779
▁बि	-9.12822
▁तावत्	-9.12926
▁उपयोग	-9.13094
▁अथ	-9.13102
▁वस्तु	-9.13194
▁गच्छति	-9.13197
▁समुद्र	-9.13301
▁स्वामी	-9.13314
▁प्रमाण	-9.13321
▁निर्णय	-9.13339
विभागे	-9.13378
ज्ञ	-9.13409
▁उपयोगः	-9.13454
▁शक्नोति	-9.13531
स्थल	-9.13551
ष्ठ	-9.13626
द्ध	-9.13637
▁योजना	-9.1367
कार्य	-9.13705
महोदयः	-9.13792
बि	-9.14056
▁अयच्छत्	-9.14069
v	-9.14087
वी	-9.14297
▁र	-9.14346
▁अत्रत्य	-9.14353
▁व्य	-9.14392
▁ख	-9.1464
ेव	-9.14651
▁ईश्वर	-9.14735
देव्याः	-9.14749
▁इत्यतः	-9.14944
▁आचार्य	-9.15214
▁वैदिक	-9.1563
▁राज्यं	-9.15679
▁मि	-9.15713
ेत	-9.15773
_	-9.15891
▁पि	-9.15894
▁मन्दिरं	-9.16078
▁जलं	-9.16129
?	-9.16172
ितं	-9.16223
▁हस्त	-9.16347
▁प्राप्नोति	-9.16411
▁बा	-9.1644
▁शिक्षा	-9.16482
चन्द्र	-9.16541
▁2011	-9.16579
▁शासनं	-9.16704
▁आवश्यकता	-9.16748
▁इतः	-9.16816
त्वम्	-9.17051
राष्ट्र	-9.17098
▁नैव	-9.17204
y	-9.17245
▁इत्यत्र	-9.17327
वर्ष	-9.17551
किलोमीटर्मिते	-9.17761
▁अनेकानि	-9.17764
▁यस्मिन्	-9.17789
प्	-9.17829
कस्य	-9.17914
▁कदापि	-9.17936
ीनां	-9.18053
▁महान्	-9.18094
भूमिः	-9.18122
णि	-9.1823
▁सर्वाणि	-9.18283
भेद	-9.18587
ाप	-9.1868
▁शरीर	-9.18699
ताम्	-9.18845
▁व्यवस्था	-9.18917
गो	-9.19056
▁समीप	-9.19413
▁मार्ग	-9.19715
▁षड्	-9.19724
▁इत्यस्मिन्	-9.19908
गु	-9.2015
ग्रन्थ	-9.20196
ल्ल	-9.20258
▁परस्पर	-9.20299
▁रक्त	-9.203
उपमण्डलानि	-9.2042
▁निर्मितः	-9.20424
▁दुःख	-9.20558
▁सर्वं	-9.2068
▁पश्चिमे	-9.20733
क्रीडा	-9.20763
▁पुरुषाः	-9.20777
▁30	-9.20784
▁नद्यः	-9.20831
काव्य	-9.20879
▁भ	-9.20993
रुप	-9.21066
▁दूर	-9.21103
▁स्थित	-9.21111
▁मन्दिरस्य	-9.21221
पूर्ण	-9.2134
▁युद्धे	-9.21411
▁बसयानैः	-9.21418
▁साहित्य	-9.21427
विज्ञान	-9.21488
सः	-9.21535
मास	-9.2159
▁महिलाः	-9.21656
▁भव	-9.21686
▁सरलतया	-9.21708
मन्त्र	-9.21801
▁वर्तन्ते	-9.21836
▁भाग	-9.22221
▁प्रभावः	-9.22254
▁ग्राम	-9.22351
▁कार्याणि	-9.22361
ानुगुणं	-9.22458
ानन्द	-9.2249
▁त्वं	-9.2264
▁अल्प	-9.22774
▁अमेरिका	-9.22791
▁पृथ्वीराज	-9.22906
▁पाप	-9.22934
2)	-9.22941
b	-9.23
▁कार्यम्	-9.23068
▁प्रतिवर्ष	-9.23135
भा	-9.23228
▁क्षेत्रे	-9.23287
▁वर्षाणि	-9.23292
पुरुष	-9.2332
▁प्रदेशे	-9.23408
▁आहार	-9.23466
▁एतेन	-9.23548
▁प्रवेश	-9.23703
वन	-9.2371
▁प्राप्नुवन्ति	-9.23777
▁मध्य	-9.23829
▁पत्नी	-9.23856
योगस्य	-9.23863
णां	-9.24016
लिङ्ग	-9.2421
▁अधुना	-9.24221
▁1.	-9.24275
▁संवत्सरे	-9.24315
ाचार्य	-9.24348
▁दिनानि	-9.24498
▁तव	-9.24529
▁आगत्य	-9.24682
▁भाष्य	-9.24711
महानगराय	-9.24729
▁सम्पूर्ण	-9.24764
▁वर	-9.25093
यु	-9.25124
▁यात्रा	-9.25218
▁इतिहासः	-9.25272
▁शासन	-9.25398
▁उत्तरे	-9.25478
▁उच्च	-9.25505
–	-9.25579
प्रदेशः	-9.25589
▁तां	-9.25592
▁मनः	-9.25702
▁अर्जुन	-9.25724
▁पुरातन	-9.25776
ूरु	-9.25857
मह	-9.25902
▁कन्दुक	-9.25942
▁पर्वत	-9.25951
▁यद	-9.26039
तीर्थ	-9.26278
▁विज्ञान	-9.26312
▁नगरमिद	-9.26371
▁इदानीं	-9.26389
▁दीमापुर	-9.26432
▁नामकरण	-9.26437
मकरोत्	-9.26484
▁तृतीय	-9.26713
▁प्रतिदिन	-9.26759
वार	-9.2694
▁मोक्ष	-9.26942
▁कश्चित्	-9.26967
▁पूजा	-9.26998
▁क्रमेण	-9.27047
▁अपेक्षया	-9.27175
▁प्रवहति	-9.27246
स्यापि	-9.27264
▁संस्था	-9.27407
▁स्वप्न	-9.27437
▁प्रमुखाः	-9.27463
ढ	-9.27639
मात्र	-9.27664
स्थान	-9.27818
▁भूमार्गेण	-9.27857
गण	-9.2803
किलोमीटर्मितः	-9.28074
पक्षस्य	-9.28158
▁चतुर्दश	-9.28242
धर	-9.2826
सेन	-9.28355
▁स्	-9.28382
देवालयः	-9.28442
▁अङ्ग	-9.2846
▁उद्	-9.2856
ेत्	-9.28612
भारत	-9.28724
▁द्वि	-9.28744
रङ्ग	-9.28751
मुप	-9.28775
▁पर्यटनस्थलानि	-9.28871
▁स्त्री	-9.28938
भागः	-9.29054
▁एतानि	-9.29068
▁वे	-9.29147
▁कवि	-9.29233
▁यू	-9.29238
मो	-9.29344
▁राज्यम्	-9.29358
▁कृषि	-9.29455
▁कथयन्ति	-9.2955
▁बल	-9.29591
▁प्रतिचतुरस्र	-9.29618
ावसरे	-9.29663
▁वन	-9.29735
स्म	-9.29846
▁दुर्गा	-9.29855
▁संस्थायाः	-9.29979
▁उपयुज्यते	-9.30081
▁प्रकाश	-9.30092
▁भारतं	-9.30248
▁एकस्य	-9.30258
▁पूर्वदिशि	-9.30263
▁कारणं	-9.30282
▁पक्ष	-9.30326
युक्तः	-9.3035
▁अध्ययनं	-9.30536
▁अश्व	-9.30594
▁इच्छा	-9.30691
मनु	-9.30748
मन्	-9.30757
▁चतुर्थ	-9.30768
िन	-9.30782
▁मत	-9.30994
▁पाल	-9.31003
▁मन्दिराणि	-9.31093
णं	-9.31181
▁लोहपुरुषस्य	-9.31209
▁भारतदेशे	-9.31276
ट्ट	-9.31328
▁प्रसिद्धा	-9.31369
ह्	-9.316
▁एतस्मिन्	-9.31643
▁जायते	-9.31685
▁जनगणनानुगुण	-9.31718
▁सामाजिक	-9.31736
▁स्वर	-9.31799
चित्र	-9.31807
तम	-9.31837
क्रम	-9.31916
▁स्थितिः	-9.32012
भाषायां	-9.32015
▁आनन्द	-9.32071
▁उत	-9.32135
▁आचर्यते	-9.32266
▁पश्चिमदिशि	-9.32402
▁दीक्षा	-9.32429
▁ताः	-9.32477
▁तान्	-9.32489
▁कथ	-9.32657
देशः	-9.32831
चा	-9.32848
3)	-9.32858
▁चेन्नै	-9.33032
▁साधन	-9.33059
भारतस्य	-9.33099
▁केन	-9.33151
नेन	-9.33176
▁सम्	-9.3319
▁पुत्री	-9.33261
ास	-9.33384
ाह	-9.33399
▁न्यून	-9.3348
▁देशे	-9.33498
▁आर्थिक	-9.33567
▁25	-9.33602
▁वातावरणं	-9.33683
साम्राज्यस्य	-9.33733
▁प्रचलति	-9.33752
▁उत्सवः	-9.33807
रेव	-9.3384
▁घोषणा	-9.33905
ाल	-9.3392
▁प्रदेशः	-9.34126
▁सम्यक्	-9.34137
▁ग्रामे	-9.3426
न्य	-9.34451
▁गुवाहाटी	-9.34505
्यन्ते	-9.34523
▁विश्वे	-9.3458
मुक्त	-9.34612
▁भवान्	-9.34818
▁जात	-9.34928
,000	-9.35013
▁नियम	-9.35015
▁मां	-9.35093
▁पुष्प	-9.35124
नाम्ना	-9.35245
स्वरूप	-9.3527
मितः	-9.35275
▁बहिः	-9.35398
l	-9.35554
▁पवित्र	-9.35576
▁मेघनाद	-9.35623
खण्ड	-9.35631
रण	-9.35856
कुण्ड	-9.35886
▁प्रसिद्धानि	-9.35893
संस्कृत	-9.35926
प्रति	-9.36005
सागर	-9.36077
लाल	-9.36078
▁द्रष्टु	-9.36127
▁अत्रैव	-9.36356
पुराण	-9.36385
द्र	-9.36452
▁मनो	-9.36647
सरस्वती	-9.36649
रू	-9.36682
ुः	-9.36695
▁कन्नड	-9.36745
▁तिथौ	-9.36775
▁वयसि	-9.3686
▁आर्	-9.37044
▁आङ्ग्लाः	-9.37211
र्ज	-9.37243
▁भोग	-9.37292
हित	-9.37372
▁1000-9	-9.37392
सिंह	-9.37483
▁वक्तु	-9.37578
टा	-9.3763
ैर्	-9.37633
मार्ग	-9.37683
▁पु	-9.37731
▁एन	-9.37781
ाऽस्ति	-9.37926
▁गत	-9.37996
प्रदेश	-9.38203
शासन	-9.38266
▁कारण	-9.3828
कार्यं	-9.38309
▁गण	-9.38355
▁मुक्त	-9.38401
20	-9.38402
▁सीता	-9.3843
साधन	-9.38447
काम	-9.38467
ादेव	-9.38516
नव	-9.38558
दी	-9.38582
▁प्रसिद्धं	-9.38582
पूर्वकं	-9.38629
िभिः	-9.38639
▁उत्सव	-9.38663
संहिता	-9.38675
▁सर्वेषु	-9.38736
▁अत्यधिक	-9.38852
दत्त	-9.38907
▁हो	-9.39028
▁शतके	-9.39071
ात्म	-9.39089
▁आत्मा	-9.39218
दान	-9.39283
कारण	-9.39286
▁चेति	-9.39348
▁सङ्ख्या	-9.39515
वाक्य	-9.39533
मल	-9.39541
मिव	-9.39546
धर्मस्य	-9.39599
▁अस्मि	-9.39605
▁/	-9.39637
स्थाने	-9.39662
हार	-9.39721
▁पा	-9.39799
▁प्रमुखं	-9.39916
▁तत्रैव	-9.40008
▁प्रतिशतं	-9.40072
ॉ	-9.40093
▁तदेव	-9.40157
िय	-9.4019
▁दक्षिणदिशि	-9.40249
ासु	-9.40311
गीत	-9.40334
▁इच्छति	-9.40373
f	-9.40564
▁विरोध	-9.40589
ग्र	-9.40595
ब्	-9.4068
▁आदि	-9.40762
िना	-9.40854
▁इत्याख्येन	-9.40884
▁सांस्कृतिक	-9.40895
भार	-9.41039
▁अलिखत्	-9.41055
▁एकादश	-9.41094
चक्र	-9.41095
णी	-9.4116
▁प्रमुखाणि	-9.41169
गृह	-9.41196
▁रेलयानानि	-9.41209
▁प्रत्यक्ष	-9.41212
शक्तिः	-9.41222
भागे	-9.41315
वंश	-9.41341
▁विष्णु	-9.41405
जात	-9.4149
्यं	-9.41559
▁गङ्गा	-9.41564
▁दत्त	-9.41901
यान	-9.41901
▁अधिकं	-9.41931
ेय	-9.42021
▁क्रमाङ्कस्य	-9.42269
नाटक	-9.42285
▁समा	-9.42317
▁लक्ष्य	-9.42334
ास्ति	-9.42416
30	-9.42579
▁पृथक्	-9.42579
तत्त्व	-9.42608
सर्व	-9.42657
▁प्राप्नोत्	-9.42671
▁आरम्भः	-9.42717
हे	-9.42755
जीवन	-9.42844
▁नागालैण्ड	-9.42896
जीव	-9.42911
▁सेवा	-9.42981
▁बृहत्	-9.43011
▁मातुः	-9.43047
▁नृत्य	-9.43079
▁निर	-9.43088
▁इत्यादीनां	-9.43126
स्ट	-9.43131
ीया	-9.43176
प्रमाण	-9.43247
▁सन्त	-9.43259
▁नामानि	-9.4327
यात्रा	-9.43323
▁श्रुत	-9.43324
▁प्रचालित	-9.43391
क्र	-9.43493
▁अरुणाचलप्रदेश	-9.43613
भू	-9.4363
▁शुद्ध	-9.43675
5)	-9.43721
▁तन्	-9.43744
▁सम्बन्ध	-9.43755
▁मित्र	-9.43764
यि	-9.4377
▁हरि	-9.43789
▁प्रख्यात	-9.43813
नियम	-9.43907
▁1947	-9.43912
ोक्त	-9.43914
▁मङ्गल	-9.4392
धिक	-9.4393
▁ऑफ	-9.43944
▁पूर्वे	-9.43978
शिला	-9.44002
▁24	-9.44013
सो	-9.44086
▁दीर्घ	-9.44114
क्रिया	-9.44122
ेऽस्मिन्	-9.44153
स्थित	-9.44164
ॆ	-9.4422
बन्ध	-9.44275
▁स्वर्ग	-9.44337
▁अन्तर्भवति	-9.44536
▁सत्	-9.44544
▁गतः	-9.4461
▁निर्मितम्	-9.4464
▁प्राकृतिक	-9.44735
चार	-9.4474
विध	-9.44741
▁पुराण	-9.44748
▁स्थले	-9.44748
▁प्रकृति	-9.44765
▁अस्यां	-9.44787
नीय	-9.44815
पुरम्	-9.4491
▁चक्र	-9.45023
▁रात्रौ	-9.45059
▁ग्रन्थे	-9.451
वचन	-9.45153
▁संशोधन	-9.4524
▁अग्नि	-9.45284
▁सागर	-9.45409
स्योपरि	-9.45457
▁एतद्	-9.45538
▁विभाजन	-9.45597
▁आचरन्ति	-9.45602
पति	-9.45712
▁विवाहः	-9.4573
▁वायु	-9.45777
स्मिन्	-9.45785
▁भुवनेश्वर	-9.45822
शिव	-9.45953
गे	-9.45957
▁चर्चा	-9.45959
9)	-9.46021
▁करणीयम्	-9.46047
ेन्द्र	-9.46094
▁जे	-9.46101
▁सूत्र	-9.46118
▁मह	-9.46136
गी	-9.46154
▁शिष्य	-9.4619
बोध	-9.46261
शिक्षा	-9.46369
ुं	-9.46375
▁विद्यमानं	-9.46386
▁केन्द्रं	-9.46394
▁एष	-9.46426
▁पार्श्वे	-9.46462
▁उत्तरदिशि	-9.46467
बे	-9.46501
▁जा	-9.4652
पर्वत	-9.46541
▁आरब्धवान्	-9.46552
▁वैज्ञानिक	-9.46572
▁दायित्वं	-9.46587
4)	-9.46635
प्रयोग	-9.4675
▁ज्ञात्वा	-9.46759
▁इन्द्र	-9.46773
▁महिला	-9.46842
ाई	-9.46912
▁रूप	-9.46918
सहस्र	-9.46943
▁कर्माणि	-9.46998
▁प्राप्तः	-9.47028
A	-9.47066
▁श्लोक	-9.47155
▁प्रारभत	-9.47179
▁भक्त	-9.47191
▁अनन्तरम्	-9.47201
स्थानं	-9.47213
तन्त्र	-9.47269
सम्	-9.47316
6)	-9.47404
▁राज्ञी	-9.47405
ादिषु	-9.4744
▁प्रयोग	-9.47557
▁जीवनस्य	-9.476
▁विहाय	-9.4761
▁संयुक्त	-9.47626
झ	-9.47629
शि	-9.47632
▁वर्तमान	-9.47728
re	-9.47781
▁एतस्मा	-9.47824
मध्ये	-9.47919
▁सम्पूर्णे	-9.47955
▁शान्ति	-9.47981
ङ्ग्	-9.47984
12	-9.4803
▁गज	-9.48076
कालः	-9.48171
▁मृत्युः	-9.4822
▁ग्रन्थः	-9.48308
▁जानाति	-9.48378
स्थानम्	-9.48444
▁तिष्ठति	-9.48707
मण्डल	-9.48709
यज्ञ	-9.48762
लो	-9.48812
▁सर्वकारस्य	-9.48827
▁व्याख्या	-9.48838
7)	-9.48839
▁कालः	-9.48876
▁अधः	-9.4888
▁मै	-9.48964
जनैः	-9.4908
श्व	-9.49134
▁श्रूयते	-9.49239
हो	-9.49291
दल	-9.49332
▁प्रदत्तम्	-9.49337
ोत्तर	-9.49359
8)	-9.49373
▁प्रभाव	-9.49449
यत	-9.49488
▁भारतदेशस्य	-9.49658
▁राष्ट्रपतिः	-9.49685
▁मन्यन्ते	-9.49687
▁इत्याख्यस्य	-9.49785
▁समग्र	-9.49837
▁महत्	-9.49893
वान	-9.49902
पर्यन्तम्	-9.49944
▁कविः	-9.49952
त्रय	-9.4997
▁मनुष्य	-9.50057
वै	-9.50122
पञ्च	-9.5013
▁द्वयो	-9.50256
ीयः	-9.5031
1)	-9.5034
▁दर्शनं	-9.50355
▁19	-9.50355
पात	-9.50386
वर्ति	-9.50418
▁of	-9.50434
▁प्राप्तम्	-9.50677
▁वाक्य	-9.50682
स्वामी	-9.50712
▁गर्भ	-9.50773
▁सज्ज	-9.50778
▁तम	-9.50832
▁स्थितस्य	-9.50877
महोदयस्य	-9.5094
राय	-9.50972
राजः	-9.50987
▁डि	-9.51022
c	-9.51051
▁अन्तर्गत	-9.5107
सूत्र	-9.51095
ामि	-9.51114
▁अष्टादश	-9.51169
▁हृदय	-9.51181
स्था	-9.51233
17	-9.51323
▁की	-9.5142
▁मिलित्वा	-9.51569
▁दत्त्वा	-9.51582
▁विमानस्थानक	-9.51588
▁छ	-9.51658
er	-9.51685
▁वचन	-9.517
▁समर्थ	-9.51716
00	-9.51748
ओ	-9.51906
दण्ड	-9.52039
ेऽ	-9.52059
▁the	-9.5213
▁चापि	-9.52132
प्य	-9.52157
▁गा	-9.52186
धन	-9.52211
▁उद्योग	-9.52275
▁26	-9.52345
▁पार	-9.52369
▁अन्यानि	-9.52371
▁सभा	-9.52432
▁माया	-9.52434
गिरि	-9.52532
दास	-9.52556
▁प्रेम	-9.52557
▁बाह्य	-9.52691
▁नगरेभ्यः	-9.52725
’-	-9.52742
कवि	-9.52795
▁उत्	-9.52796
▁स्थलम्	-9.52841
नाय	-9.52854
▁सर्वान्	-9.52867
य्य	-9.5292
युद्ध	-9.52982
▁दृष्ट	-9.53004
पक्ष	-9.53038
▁भक्ति	-9.53141
यते	-9.53219
▁जीवनं	-9.53293
न्तु	-9.535
शक्ति	-9.53575
▁स्थित्वा	-9.53625
▁रेलस्थानक	-9.53756
▁औषध	-9.53823
▁पटेल	-9.5385
▁मध्यभागे	-9.53914
▁कृतं	-9.53926
▁स्थान	-9.53939
▁वस्तुत	-9.53957
▁ऐतिहासिक	-9.53994
▁सामान्यत	-9.5405
▁2.	-9.54074
▁ग्रन्थस्य	-9.54153
▁21	-9.54182
▁दिव्य	-9.5427
केन्द्र	-9.54309
▁क्रिया	-9.54389
▁तम्	-9.54459
▁स्पष्ट	-9.54538
▁कुरु	-9.5468
▁दर्शन	-9.54711
तमवर्षस्य	-9.54711
15	-9.54789
▁भागं	-9.54977
दिन	-9.55057
18	-9.5509
▁साहाय्यं	-9.55094
दोष	-9.55256
कृष्ण	-9.55303
ऽस्ति	-9.55359
▁शत	-9.5538
▁धर्मस्य	-9.55418
▁तटे	-9.55443
▁पूर्वम्	-9.55514
सम्बद्धानि	-9.55532
दृश्य	-9.55536
▁राजनैतिक	-9.5555
▁समृद्ध	-9.55599
▁स्वरूप	-9.5564
▁देवी	-9.55657
▁शिक्षण	-9.55664
▁सस्य	-9.55719
शी	-9.55739
▁मणिपुर	-9.55752
ाम्	-9.55779
▁तेषाम्	-9.55915
णे	-9.5593
टन्	-9.5595
▁नाश	-9.55982
▁नवीन	-9.56023
▁उक्तम्	-9.56032
▁वायुमार्गेण	-9.56035
नः	-9.56036
▁सूक्ष्म	-9.56104
▁देह	-9.56154
कुमार	-9.5618
▁सो	-9.56217
▁उष्ण	-9.56301
र्य	-9.56302
ांश	-9.5633
▁कुल	-9.56334
▁भवितु	-9.56336
क्क	-9.56346
▁कुर्वन्तः	-9.56372
ज्ञानं	-9.56383
वर्	-9.56388
▁उक्तं	-9.56416
िन्	-9.56435
सन्	-9.56486
माण	-9.56488
वंशस्य	-9.56496
▁अरण्य	-9.56511
▁राग	-9.56513
▁आक्रमणं	-9.56563
▁बोध	-9.56614
▁वंश	-9.56766
वृत्त	-9.56777
▁भारतगणराज्य	-9.5698
केन्द्रम्	-9.5701
ाङ्क	-9.57102
ाभि	-9.57198
▁क्षेत्रं	-9.57305
▁अधिकार	-9.5734
▁शक्ति	-9.57385
▁प्रवृत्त	-9.57418
▁तत्त्व	-9.57424
▁बाण	-9.57514
▁संविधान	-9.57518
स्तर	-9.5755
तौ	-9.57603
16	-9.57605
▁एवम्	-9.57669
▁सर्वप्रथम	-9.577
▁आरम्भ	-9.57767
महानगरं	-9.57768
▁भ्रमणार्थ	-9.57798
▁श्रद्धा	-9.5783
महानगरस्य	-9.57857
▁भरत	-9.57894
▁नाटक	-9.57982
सम्बद्ध	-9.58048
▁सर्वै	-9.58113
▁दु	-9.58159
▁कस्यचित्	-9.58165
▁अनन्त	-9.58188
▁इण्डिया	-9.58193
▁पुण्य	-9.58397
▁पार्वती	-9.58408
गङ्गा	-9.58501
ेनैव	-9.58507
▁कल्याण	-9.58558
▁भार	-9.5858
विजय	-9.58674
ूर	-9.58689
▁अज	-9.58732
▁प्रप्रथम	-9.58762
▁23	-9.58766
▁सेना	-9.5879
वस्तु	-9.58804
india	-9.58904
ाना	-9.58935
र्व	-9.58946
टे	-9.59067
▁गु	-9.59068
र्म	-9.59172
11	-9.5918
ितुं	-9.59229
विधान	-9.59268
▁ग्रामः	-9.59312
▁महात्मनः	-9.59351
▁कृषिः	-9.59368
सदृश	-9.59382
▁वर्ग	-9.59386
▁दुर्ग	-9.59549
नस्य	-9.59625
▁अनुभव	-9.59673
▁निम्न	-9.59711
▁सी	-9.59745
▁शिला	-9.59755
▁पदार्थ	-9.59762
दश	-9.59773
▁कर्णाटकस्य	-9.59814
▁पञ्चम	-9.59879
▁मण्डलः	-9.59882
पदं	-9.59902
▁पठन	-9.59965
▁अधिका	-9.60017
▁27	-9.60043
▁प्रमुखनगर	-9.60078
▁सरल	-9.60108
▁प्रमुखनगरैः	-9.60126
▁जलस्य	-9.60126
दूर	-9.60149
▁अन्यतमा	-9.60232
▁फ	-9.60236
▁प्रजा	-9.60284
तं	-9.60326
▁शनैः	-9.60342
▁घटना	-9.60345
ोः	-9.60383
क्षेत्रस्य	-9.60402
▁अन्न	-9.60409
▁ॐ	-9.60485
▁सुवर्ण	-9.60512
▁अहमदाबाद	-9.60575
html	-9.60589
च्	-9.60624
सेना	-9.607
▁पतञ्जलिः	-9.60776
वर्णन	-9.60792
ग्न	-9.60835
▁त्याग	-9.60865
▁लभ्यते	-9.60958
पञ्चाङ्गानुसार	-9.61019
▁प्राप्ता	-9.6108
माध्यमेन	-9.61163
w	-9.61271
▁इत्यादिभि	-9.61313
▁इम	-9.61459
टीका	-9.61488
▁अस्मात्	-9.61515
▁तदैव	-9.6152
स्यैव	-9.61716
▁जि	-9.61762
्यै	-9.61782
दिने	-9.61947
वर्त	-9.62153
▁मोह	-9.62227
खा	-9.62271
▁प्रत्येक	-9.62277
▁स्वर्ण	-9.62301
▁विषयः	-9.62315
▁श्वेत	-9.62355
▁पुणे	-9.62444
▁काचित्	-9.62498
j	-9.62527
पदार्थ	-9.62551
देवः	-9.62655
कट	-9.62668
बी	-9.62758
▁चित्त	-9.6282
▁संख्या	-9.62821
▁विद्यमानः	-9.62895
▁बुद्धि	-9.62946
सिद्ध	-9.62949
▁अर्ध	-9.62951
▁दोष	-9.6296
▁दत्तवान्	-9.63016
▁चलच्चित्र	-9.63067
शिक्षण	-9.6307
▁शीतर्तौ	-9.6308
▁नाना	-9.63102
▁शान्त	-9.63142
▁प्रश्न	-9.63245
स्थलं	-9.63257
जय	-9.63268
▁विदेश	-9.63336
संस्था	-9.63354
▁परिणाम	-9.63369
▁22	-9.63439
▁षट्	-9.63516
ानाम	-9.6354
चर	-9.63587
|	-9.63589
▁पद्य	-9.63591
▁शरीरस्य	-9.63594
▁मृत	-9.63618
▁पञ्चदश	-9.63629
मित	-9.63645
al	-9.63683
▁नारायण	-9.63709
▁इन्द्रिय	-9.63731
त्वा	-9.63873
बाल	-9.63973
शत	-9.64146
पुत्र	-9.64161
स्तथा	-9.64179
▁स्थिते	-9.6418
ाम	-9.64216
▁भूत	-9.64248
▁नाग	-9.64256
▁ता	-9.64284
▁प्रशासन	-9.64305
▁स्वीय	-9.64314
▁लोह	-9.64395
दिनाङ्कः	-9.64509
▁कोङ्ग्रेस	-9.64512
▁प्रदेश	-9.64524
▁शरीरं	-9.64529
दे	-9.6456
शा	-9.64624
माला	-9.64727
▁विकास	-9.64788
▁व्यापार	-9.64799
निर्माण	-9.64834
▁दिनात्	-9.6485
▁भोजन	-9.64934
▁50	-9.64977
ग्राम	-9.64981
ुर	-9.64989
▁जनैः	-9.64999
▁योग्य	-9.65017
▁वायुः	-9.65028
सूक्त	-9.65061
▁अद्य	-9.6513
▁अपूर्व	-9.65207
▁सहस्र	-9.65264
ar	-9.65276
तल	-9.65301
▁पुरुषः	-9.65331
▁सोम	-9.65339
▁देवालयः	-9.65372
धर्मः	-9.65406
▁एस्	-9.65466
वद	-9.65483
यम्	-9.65483
गम	-9.65497
रपि	-9.655
▁प्रत्य	-9.65504
▁पुरतः	-9.65508
▁मण्डलं	-9.65525
▁इत्येन	-9.65701
▁चेदपि	-9.65754
वन्तौ	-9.65777
क्षेत्रं	-9.65783
विष्णु	-9.65807
▁भौतिक	-9.65821
तृ	-9.65832
▁विभाग	-9.65899
लक्षण	-9.65931
रूपं	-9.66037
▁वास	-9.66079
▁देवाः	-9.66196
प्रधान	-9.66221
सेवा	-9.66229
▁सर्वकार	-9.66232
तेभ्यः	-9.66269
पू	-9.6631
विचार	-9.66411
▁साक्षात्	-9.66448
विश्वविद्यालयस्य	-9.66464
▁मनुष्यः	-9.66528
नगरेण	-9.66558
▁षोडश	-9.6659
गल	-9.66622
▁हा	-9.66688
▁प्रमुखः	-9.66747
शरीर	-9.66855
▁अनेकाः	-9.66864
▁हर	-9.67005
▁अहम्	-9.67053
भाई	-9.67055
▁वर्षान्त	-9.6706
▁मृत्योः	-9.67061
द्वय	-9.67094
▁पू	-9.67097
्यू	-9.67117
13	-9.67221
▁सदस्य	-9.67302
▁षष्ठ	-9.67302
गार	-9.67321
▁चत्वारः	-9.67432
मासतः	-9.67443
▁हिन्दू	-9.67568
रिय	-9.6757
▁दि	-9.67588
▁दुर्	-9.67594
कल्प	-9.67671
▁अद्याप	-9.67713
▁तदीय	-9.67804
▁समस्त	-9.67823
▁समाप्य	-9.6787
▁त्रयः	-9.67989
▁एवमेव	-9.68006
शाला	-9.68011
चरित	-9.68031
करः	-9.68066
साहित्य	-9.68072
▁यो	-9.68073
▁भोपाल	-9.68088
▁विधि	-9.68164
▁कर्तव्य	-9.68254
▁पुरी	-9.68258
पाठ	-9.68277
राज्यम्	-9.68516
ीकृत्य	-9.68573
शैल्या	-9.68574
ग्रह	-9.68596
▁वृद्ध	-9.68601
वर्षाणि	-9.68638
▁कालान्तरे	-9.68697
▁विभिन्ननगर	-9.6872
ुप	-9.68756
▁मतम्	-9.68758
▁तदर्थ	-9.68772
▁ध्यान	-9.6882
निर्मित	-9.68913
▁मुख	-9.68938
दीप	-9.6896
गुरु	-9.69049
▁शासनम्	-9.6907
▁आगतः	-9.69092
ण्ण	-9.69136
▁समाज	-9.69188
▁प्रथमे	-9.69197
▁कतिपय	-9.69215
रिया	-9.69301
▁प्रधानमन्त्री	-9.69381
en	-9.69394
▁कै	-9.6942
▁वायुयानान	-9.69435
रहित	-9.6945
C	-9.69474
▁कस्याप	-9.69485
▁मन्दिरे	-9.69507
▁प्रसिद्धाः	-9.69519
ङ	-9.69523
▁काष्ठ	-9.69586
मानं	-9.69607
▁प्रारम्भ	-9.69641
त्रि	-9.6965
समीपे	-9.69695
▁सम्पर्क	-9.69712
नक्षत्रे	-9.69774
तमं	-9.69804
▁पाठ	-9.69867
▁आरब्धम्	-9.70079
▁आदेश	-9.70299
▁खण्ड	-9.70401
▁अन्येषा	-9.70475
न्द्र	-9.70476
▁दशम	-9.7053
प्रकाश	-9.70539
वश	-9.70637
▁खलु	-9.70678
यामास	-9.70694
दर	-9.70747
ोऽभवत्	-9.70756
▁दर्शनीय	-9.70784
▁अमृत	-9.7082
▁दिन	-9.70832
▁ध	-9.70841
ध्यायस्य	-9.70879
सङ्ख्या	-9.70903
▁युद्धम्	-9.70972
▁स्थिर	-9.71018
मान्	-9.71048
जनेषु	-9.71096
▁द्वितीये	-9.71163
िर	-9.71163
सुख	-9.71195
ज्ञा	-9.71245
▁गौरव	-9.71248
सङ्ग	-9.71296
▁प्रतिमा	-9.713
▁स्थिता	-9.71305
येत्	-9.71356
▁इन्दौर	-9.7145
रुपेण	-9.71503
ीकरण	-9.7151
ब्राह्मण	-9.71514
▁समस्याः	-9.71525
▁मन्दिर	-9.71544
▁मार्च	-9.71563
▁लक्ष्मी	-9.71566
▁40	-9.71655
▁गुरुः	-9.71709
व्रत	-9.71758
!	-9.71767
60	-9.71827
▁3.	-9.71836
▁मधुर	-9.71854
सभा	-9.71879
▁अध्यक्षः	-9.71927
▁मार्गे	-9.71976
प्रदेशं	-9.72019
▁शिवस्य	-9.72035
▁इन्दिरा	-9.72089
त्या	-9.72123
▁सम्बद्ध	-9.72231
पर्वतः	-9.72257
▁अध्ययन	-9.72286
षा	-9.72355
ग्रामः	-9.72377
▁तपः	-9.72423
▁एम्	-9.72446
टो	-9.72467
▁मद	-9.72517
म्हैन्दव	-9.72556
स्तिकवादाः	-9.7256
▁बी	-9.72566
▁S	-9.72587
▁ज्ञातुं	-9.72617
▁डे	-9.7263
नामक	-9.72647
सङ्गीत	-9.72671
तीर्थस्थानान	-9.7268
▁पण्डित	-9.72684
▁प्रचलन्ति	-9.72694
▁इतर	-9.72748
▁परा	-9.72751
विमानस्थानकं	-9.7282
▁ध्वनि	-9.72862
▁आरब्धा	-9.72913
राग	-9.7296
▁नौका	-9.72968
▁लिखित	-9.72998
▁क्रिस्ताब्द	-9.7302
▁लिप्	-9.73023
क्षेत्रेषु	-9.73044
▁हरियाणा	-9.73066
▁गृहं	-9.73073
▁विस्तार	-9.73112
▁भा	-9.73121
▁बुद्धिः	-9.73124
रोग	-9.73152
पो	-9.7318
भिन्न	-9.73186
▁क्षेत्र	-9.73363
▁ददाति	-9.73389
▁साहाय्येन	-9.73416
गर	-9.73427
14	-9.73435
▁ईश्वरः	-9.73455
वन्	-9.73551
▁अक्षर	-9.73574
भङ्ग	-9.73704
▁निर्दिष्ट	-9.73735
▁स्वीकृत्य	-9.73745
कार्याणि	-9.73881
’,	-9.73951
▁जीवः	-9.73965
▁आयोजन	-9.7399
▁चीन	-9.74039
ैर	-9.74081
▁कपिल	-9.7409
▁यु	-9.74123
▁प्रिय	-9.74189
▁इष्ट	-9.74197
न्तर	-9.74222
▁अग्निः	-9.74227
▁स्वयमेव	-9.74326
सत्य	-9.74345
▁त्रीणि	-9.74369
पी	-9.74385
▁स्थलस्य	-9.74408
ालय	-9.74415
▁आर	-9.74532
ाख्य	-9.74541
▁पुर	-9.7455
मन्दिर	-9.74614
ग्रामस्य	-9.74619
सर्ग	-9.74638
50	-9.74733
भाषया	-9.74737
&	-9.74779
भावेन	-9.74813
▁बे	-9.74879
स्मात्	-9.74987
▁संसार	-9.75011
▁सम्भवति	-9.75054
िणः	-9.75062
▁द्वितीयं	-9.75118
▁आक्रमण	-9.75121
श्चेति	-9.75143
प्रा	-9.75154
विकास	-9.75159
्त	-9.75198
▁स्थानानि	-9.75284
नामके	-9.75374
षि	-9.75411
▁28	-9.75465
योजना	-9.75484
▁कन्या	-9.75512
▁सदा	-9.75536
विश्व	-9.7554
राजस्य	-9.7554
वीर	-9.75576
▁60	-9.75625
ण्ड्	-9.75686
▁सर्वाधिक	-9.75693
रत्न	-9.75775
ादारभ्य	-9.75801
पे	-9.75824
तिः	-9.75868
क्षेत्र	-9.75902
महोदयेन	-9.75911
▁विश्वासः	-9.75914
सस्य	-9.7592
युक्तं	-9.76012
▁निकटतम	-9.76016
क्त	-9.76028
48	-9.76082
तमः	-9.76108
ाकार	-9.7614
▁गोवा	-9.76194
▁विरोधं	-9.76233
न्याय	-9.76295
▁वृक्ष	-9.76427
▁शरीरे	-9.76462
▁बुद्ध	-9.76483
मेतत्	-9.76577
▁निश्चित	-9.76593
▁इत्याख्य	-9.76622
▁प्रवास	-9.76632
25	-9.76651
▁राजानः	-9.76707
▁जगतः	-9.76713
▁आफ्	-9.76733
पर्व	-9.76791
मति	-9.76798
▁—	-9.76818
▁व्यवहार	-9.76843
▁यवन	-9.76858
▁शब्दः	-9.76868
▁आन्ध्रप्रदेश	-9.76882
▁कालिदास	-9.76949
▁महत्त्वपूर्ण	-9.77084
भावः	-9.77101
▁सार	-9.77118
▁विक्रम	-9.77139
▁निर्माण	-9.77142
स्थानानि	-9.77324
लेख	-9.77331
▁सर्वकारः	-9.7736
▁सूचना	-9.77431
▁घट	-9.77482
ोऽध्याय	-9.77589
▁कॊच्ची	-9.77605
▁लिङ्ग	-9.77624
▁गुप्त	-9.77673
▁लिखितवान्	-9.77721
▁दानं	-9.77744
▁मरण	-9.77758
ज़	-9.77771
▁रोग	-9.77783
▁देवता	-9.77888
▁साम	-9.77901
सिद्धान्त	-9.77923
त्वे	-9.77971
नारायण	-9.78011
था	-9.7803
▁कार	-9.7809
शास्त्रस्य	-9.7818
▁अन्तः	-9.78184
ाश्रम	-9.78203
▁अभूवन्	-9.78243
▁निरन्तर	-9.78251
▁विविधाः	-9.78267
▁नागा	-9.78279
विभाग	-9.78342
नाथः	-9.78387
धी	-9.78509
ानुसारेण	-9.78707
▁पत्र	-9.78708
ाध्याय	-9.78782
an	-9.78885
▁गुजरात	-9.78985
शील	-9.7909
क्षेत्रम्	-9.79147
▁आगच्छन्ति	-9.79161
▁शिक्षक	-9.79183
भ्य	-9.79202
▁जनः	-9.79207
▁धूमशकटमार्गेण	-9.79274
हु	-9.79304
▁हिम	-9.79327
प्रिय	-9.79333
▁योगः	-9.79357
▁शब्दस्य	-9.79425
▁यात्रिकाः	-9.79427
▁आधारेण	-9.79541
▁वस्तूनि	-9.79656
▁फलं	-9.79694
▁तर्क	-9.79802
▁कृतवती	-9.79815
▁पो	-9.79831
▁अल	-9.79841
▁विभागाः	-9.79865
विश्वविद्यालयः	-9.79899
▁तासु	-9.8002
ालङ्कार	-9.80036
मेक	-9.80044
▁जीवने	-9.8011
▁भावना	-9.80115
धान	-9.80145
▁संन्यास	-9.80199
▁पर्व	-9.80238
सूत्राणि	-9.80399
्व	-9.80406
र्जुन	-9.80454
▁शक्यन्ते	-9.80473
रचना	-9.80506
▁कारणात्	-9.80512
▁कुर्यात्	-9.80544
धाम	-9.80567
▁स्मारक	-9.80667
प्रकार	-9.80679
▁शून्य	-9.80715
▁विमान	-9.80716
▁ऋग्वेदस्य	-9.80748
विभागस्य	-9.80799
▁आहत्य	-9.80823
जन्य	-9.80941
▁प्रयुक्त	-9.80943
▁भूमौ	-9.80982
भट्ट	-9.81018
▁उत्तरभागे	-9.81071
▁आङ्ग्लसर्वकार	-9.81073
▁इत्यर्थः	-9.81215
▁उल्लिखित	-9.81326
शङ्कर	-9.81355
40	-9.81404
▁मो	-9.81411
भद्र	-9.81419
▁विकासः	-9.81478
▁आश्रय	-9.81502
▁मोक्षः	-9.81521
▁प्रसाद	-9.81549
सौ	-9.81575
▁अभ्य	-9.81615
▁कर्ण	-9.81637
भाष	-9.81679
▁प्रथमा	-9.81712
अयं	-9.81761
▁राममोहनस्य	-9.81811
▁अध्यक्ष	-9.81822
▁जगति	-9.81823
मत्	-9.81893
पान	-9.81914
▁निर्मित	-9.81931
▁पी	-9.81935
▁भेद	-9.81974
▁यानि	-9.82062
▁वस्त्र	-9.82102
▁युक्त	-9.82199
▁मध्यप्रदेश	-9.82269
नन्द	-9.82284
▁प्रदेशस्य	-9.82332
योर्	-9.82492
▁महाराष्ट्र	-9.82509
ब्रह्म	-9.8254
सन	-9.82587
▁तासा	-9.82617
▁प्रकार	-9.82635
▁श्रीनारायण	-9.82736
प्रदेशेषु	-9.82827
पथ	-9.82847
▁पदस्य	-9.82923
ँ	-9.82947
▁अह	-9.82975
हीन	-9.82998
मन्दिराणि	-9.83069
▁हिमालय	-9.83161
छ	-9.83265
58	-9.83285
▁सम्मान	-9.83305
▁दैव	-9.83398
▁लब्ध	-9.83447
लक्ष	-9.83448
क्षर	-9.83456
▁राय	-9.83484
▁वर्णन	-9.83543
▁शिल्प	-9.83594
▁स्थितमस्ति	-9.83627
▁वर्धते	-9.83662
पत्र	-9.83701
▁बो	-9.83814
शास्त्रे	-9.83828
देवता	-9.83854
▁सुन्दरं	-9.83992
▁अस	-9.84046
वशात्	-9.84061
िषु	-9.84067
▁निर्माणम्	-9.8407
मग्न	-9.8408
ैना	-9.84091
पूजा	-9.841
कर्ता	-9.84108
▁विरचित	-9.8415
ोल	-9.84162
▁वाणिज्य	-9.8419
पद्धतिः	-9.84196
वाहन	-9.84247
▁साधु	-9.8428
संशोधन	-9.84325
डु	-9.84333
साम	-9.84347
िनां	-9.84399
▁शङ्कर	-9.84431
▁गुजरातराज्ये	-9.84436
जु	-9.84439
▁अधिकाः	-9.84442
▁विष्णुः	-9.84482
▁वैद्य	-9.84501
स्मि	-9.84594
व्या	-9.84633
परम्परा	-9.84649
▁ब्रिटिश्	-9.84662
▁उल्लेख	-9.84682
▁+	-9.84688
माता	-9.847
▁अधिकः	-9.84701
▁पुनर्	-9.84797
ख्य	-9.84838
▁चकार	-9.84868
▁श्रवण	-9.84879
सह	-9.84903
▁स्थल	-9.84935
▁बहुधा	-9.84983
विषयक	-9.85064
▁बाल्य	-9.85069
S	-9.85075
ितवन्तः	-9.85115
▁P	-9.85134
पुस्तक	-9.85171
सू	-9.85181
िणी	-9.85182
▁अन्तर्भवन्ति	-9.85212
▁प्रातः	-9.85218
▁आत्मनः	-9.8524
▁भीम	-9.85257
▁महादेव	-9.85305
▁घ	-9.85307
▁लेखन	-9.85327
ापेक्षया	-9.85333
▁उपलब्ध	-9.85378
▁दातुं	-9.8539
रव	-9.85434
▁स्मृत	-9.85535
▁आधिपत्य	-9.85556
केन्द्रं	-9.85592
▁तीर्थ	-9.85607
▁मैसूर	-9.8562
क्षु	-9.85657
▁इत्येतानि	-9.85671
▁आरभत	-9.85682
क्षण	-9.8572
थि	-9.85797
वाह	-9.85819
▁कुटुम्ब	-9.85835
▁अस्माभिः	-9.85866
र्थं	-9.85942
▁निर्मितं	-9.85947
योगसूत्राणि	-9.85986
▁व्यासः	-9.85988
▁नागपुर	-9.86064
▁उत्सवाः	-9.86068
ाति	-9.86112
▁योजनाया	-9.86135
▁कानिचन	-9.86156
वद्	-9.86158
▁अद्भुत	-9.86183
▁प्रश्नः	-9.86271
▁तीव्र	-9.86317
गुप्त	-9.86359
əm	-9.86376
▁मन्दिरम्	-9.864
▁पूर्वमेव	-9.86564
▁पुत्रस्य	-9.8658
—	-9.86602
▁विनाश	-9.86651
:।	-9.86651
▁प्राप्तवन्तः	-9.86678
▁सरस्वती	-9.86719
हस्त	-9.86736
▁सिन्धु	-9.86764
युज	-9.868
▁मेघालय	-9.86802
▁लोके	-9.86845
▁विश्वविद्यालय	-9.86932
रिति	-9.86945
वृत्ति	-9.86952
प्रक्रिया	-9.86961
▁एकत्र	-9.86992
उप	-9.8701
▁भवतु	-9.87022
ासीत्	-9.8708
ाधिकार	-9.8709
दः	-9.87092
व्	-9.871
▁सरोवर	-9.87101
स्थले	-9.87155
▁29	-9.8717
कृत्य	-9.87193
▁पर्यटन	-9.87231
अगस्त	-9.87262
▁बङ्गाल	-9.87331
काण्ड	-9.87363
▁प्रस्तुत	-9.87418
▁सुर	-9.8747
वन्त	-9.87476
▁सर्वथा	-9.87489
▁अङ्क	-9.87492
▁रो	-9.87526
वर्षानुगुण	-9.87535
संस्थायाः	-9.87547
▁आचरित	-9.87547
दुर्ग	-9.87584
धारण	-9.87634
▁गोविन्द	-9.87651
ष्ण	-9.87653
▁श्रुति	-9.87687
▁रङ्ग	-9.87775
▁बहूना	-9.87797
▁नायक	-9.87803
▁प्राप्तवती	-9.87815
co	-9.87844
▁गद्य	-9.8788
▁विचारः	-9.87918
न्स्	-9.87928
ूर्	-9.87938
▁राजकीय	-9.87945
दिवस	-9.87957
▁शुष्क	-9.88006
▁धनं	-9.88035
िकायाः	-9.88055
▁येषां	-9.88093
मित्य	-9.88107
▁ब्रिटिश	-9.88257
▁आगत	-9.88261
▁दल	-9.88318
▁श्लोके	-9.8834
▁मन	-9.88377
▁रथ	-9.88449
▁ब्रह्मणः	-9.8846
▁प्रार्थना	-9.88532
▁ख्यात	-9.88534
▁भवेयुः	-9.88567
▁भारतीयाः	-9.88593
▁भगवद्गीता	-9.88694
▁निर्णयः	-9.88781
ऋ	-9.88782
▁भ्रमणं	-9.889
▁विवेक	-9.88922
भय	-9.88927
शो	-9.88939
वारं	-9.88943
यन्त्र	-9.88988
▁निवास	-9.88991
▁सिद्धान्त	-9.88993
भक्त	-9.89033
census	-9.89048
ण्	-9.89109
वर्यस्य	-9.89149
▁मनसा	-9.89195
▁वार्षिकीदान	-9.89211
ुक	-9.89213
▁लभते	-9.89219
▁ट	-9.89234
▁भागे	-9.89241
ाश्रय	-9.8925
▁करणीयः	-9.8925
धार	-9.89268
ोत्सव	-9.89271
▁2,	-9.89392
ल्ला	-9.89417
ीत	-9.89418
ानुभव	-9.89501
वः	-9.89538
▁इतिहास	-9.89598
▁औन्नत्य	-9.89599
▁साम्प्रतं	-9.896
तार	-9.89733
सभायाः	-9.89749
नगरैः	-9.89754
▁कारावास	-9.89785
▁जनसंख्या	-9.89797
97	-9.89817
हू	-9.8982
जे	-9.8989
▁सम्बन्धः	-9.89915
▁शाह	-9.89931
नायक	-9.89954
ग्रे	-9.90035
▁मृग	-9.90057
▁जनान्	-9.9006
स्र	-9.901
▁साङ्ख्य	-9.90103
पुरी	-9.9011
▁गान्धि	-9.90155
युत	-9.90256
▁ला	-9.90268
▁प्रचार	-9.90315
▁प्रयोगः	-9.9036
▁प्रशंसा	-9.90379
▁वामन	-9.90451
शतक	-9.90454
▁अनुवाद	-9.9048
नृत्य	-9.9048
विमानस्थानकम्	-9.90502
लिका	-9.90543
▁शासनकाले	-9.90586
▁आक्रमणम्	-9.90595
56	-9.90601
ोत्तरं	-9.90677
▁मण्डलेषु	-9.90714
▁विख्यात	-9.90815
▁विस्तृत	-9.90842
ञ्	-9.90886
▁चितः	-9.90921
दर्श	-9.91006
स्ता	-9.91081
▁विभिन्ननगरेभ्यः	-9.91113
▁भय	-9.91115
▁प्रतिभा	-9.912
▁तीरे	-9.91236
▁क्रम	-9.91245
▁शोक	-9.91262
57	-9.91262
▁वीक्षणीयस्थल	-9.91288
करण	-9.91302
दूरे	-9.9132
▁स्मृति	-9.91324
न्यास	-9.91335
अहं	-9.91361
▁कर्णाटकराज्यस्य	-9.91364
ही	-9.9137
वेश	-9.91393
▁आकाश	-9.91445
टक	-9.91465
▁चत्वारि	-9.91474
▁रुद्र	-9.91501
इति	-9.91525
▁स्वीकर्तु	-9.91548
▁राजनीति	-9.91556
द्वि	-9.91567
▁स्वतन्त्रता	-9.9158
▁काशी	-9.91627
बद्ध	-9.91663
भी	-9.91673
▁युववल्लभ	-9.91692
▁बालवल्लभ	-9.91698
26	-9.91699
▁अन्तर्	-9.91711
▁तत्रत्य	-9.91819
▁मन्द	-9.91916
▁दीप	-9.91918
▁निवसति	-9.91924
ान्त	-9.91933
▁वर्षा	-9.91933
ात्मा	-9.91955
शैली	-9.91961
▁द्रव्य	-9.91999
वर्ग	-9.92024
▁टीका	-9.92066
▁मुस्लिम	-9.92108
ानन्तरम्	-9.9213
le	-9.92138
केश	-9.92195
ri	-9.92196
रामः	-9.92267
49	-9.92285
▁पक्षस्य	-9.92294
वेष	-9.92316
▁लोकप्रिय	-9.92335
▁उद	-9.9236
▁अंश	-9.92384
▁योगदानं	-9.92414
ादीनि	-9.92422
▁अलङ्कार	-9.92441
द्वयम्	-9.92443
▁सम्भव	-9.92447
मर	-9.92483
काश	-9.92513
▁कल्प	-9.92528
ाद्य	-9.92591
nic	-9.92671
or	-9.92672
▁राष्ट्रपति	-9.9269
देशीय	-9.92698
युग	-9.92734
▁स्थापित	-9.92803
फि	-9.92814
प्रवेश	-9.92824
▁शा	-9.92858
▁नैक	-9.92863
ाण	-9.92875
मार्गः	-9.92881
▁सर्वेभ्यः	-9.92887
▁ब्राह्मणः	-9.92898
वर्धन	-9.9294
▁श्रीकृष्णः	-9.92951
▁प्रसार	-9.93024
डे	-9.93026
कालीन	-9.93034
▁पृष्ठे	-9.93041
▁समयान्तर	-9.93044
▁सैनिकाः	-9.93054
वह	-9.93066
भूमि	-9.93066
▁जगत्	-9.93136
ाप्य	-9.93167
▁कण्ठ	-9.93223
▁पत्न्याः	-9.93289
▁बीज	-9.93291
▁द्वीप	-9.93329
पन	-9.93331
▁शिवः	-9.9334
▁4.	-9.93369
▁कुत्रापि	-9.93399
▁स्वामिनः	-9.93407
▁लेख	-9.93483
योजन	-9.93483
▁कोहिमा	-9.93548
▁भवता	-9.93574
नामकस्य	-9.93599
▁मीटर्	-9.93604
▁सकल	-9.93627
▁मत्वा	-9.93657
▁रे	-9.93685
▁उपनिषत्	-9.93783
...4	-9.93828
▁लिखितम्	-9.9385
▁ध्वज	-9.93871
▁इन्द्राः	-9.93917
▁सीमा	-9.93926
ाक्षर	-9.93935
▁स्वीकरोति	-9.93947
▁पालनं	-9.94006
▁राधाकृष्णन्	-9.94078
फलं	-9.94113
रथ	-9.94141
द्वीप	-9.94142
▁यम	-9.94169
▁कल	-9.94171
▁विवेकानन्दः	-9.94177
हरण	-9.94209
वर्त्त	-9.94249
र्ष	-9.94253
▁कोटि	-9.94255
▁मलयाळ	-9.94343
▁अन्तरिक्ष	-9.94351
मित्र	-9.94388
90	-9.94465
▁व्याप्त	-9.94546
पात्र	-9.94556
▁इत्यनया	-9.94594
▁दुर्गः	-9.94616
▁भौगोलिक	-9.94641
▁प्राक्	-9.94663
▁क्रमशः	-9.94752
▁इत्येतयोः	-9.94768
▁प्राथमिक	-9.94822
▁यान	-9.94828
▁विशिष्टा	-9.94889
▁100	-9.94894
▁प्रवहन्ति	-9.94922
▁व्या	-9.94964
वर्ध	-9.94966
▁वृत्ति	-9.95036
कर्ष	-9.95039
ोत्पादन	-9.95092
▁तैल	-9.95131
एक	-9.95174
I	-9.95176
▁आश्रम	-9.952
ेयं	-9.95205
मार्गे	-9.95211
स्ट्	-9.9522
▁क्रीड	-9.95286
▁पश्यति	-9.95325
▁नेत्र	-9.95365
▁प्रचलित	-9.95435
▁अनुमति	-9.95437
▁व्याकरण	-9.95438
प्राप्तेः	-9.9545
स्यास्य	-9.95492
▁मार	-9.95496
कानि	-9.95502
▁कार्	-9.95507
▁महात्मना	-9.95539
▁and	-9.95543
रेलस्थानकं	-9.95591
िर्	-9.95612
टर्	-9.95615
▁दान	-9.95621
▁हिन्दी	-9.95626
▁विध	-9.95794
▁जु	-9.95835
▁द्वार	-9.95847
र्ण	-9.95874
मद	-9.95876
ान्य	-9.95936
▁पुस्तके	-9.95973
▁पे	-9.96004
बीज	-9.96009
▁निर्मिताः	-9.9602
न्तः	-9.96055
▁तो	-9.9612
▁निर्मितानि	-9.96142
त्थ	-9.9615
▁स्वभाव	-9.96161
चे	-9.96198
▁कारणतः	-9.96213
▁उपग्रह	-9.96223
70	-9.96224
▁प्रदर्शन	-9.96225
▁कल्पना	-9.96228
▁ग्रन्थाः	-9.96313
काय	-9.96343
भक्ति	-9.9637
ज्ञः	-9.96443
▁समयः	-9.965
ारम्भ	-9.96516
कालिक	-9.96586
▁निर्देश	-9.96606
▁वल्लभभाई	-9.96668
▁द्विधा	-9.96692
▁रजत	-9.96706
ण्ट्	-9.96719
▁स्वल्प	-9.96766
तडागः	-9.96773
▁कर्मयोग	-9.9681
▁कष्ट	-9.96888
▁सङ्केत	-9.96962
▁भाटकयानैः	-9.97018
▁मासे	-9.97024
पट	-9.97149
▁इन्	-9.97158
बू	-9.97192
▁औ	-9.97197
▁उभयोः	-9.97213
सम्बन्ध	-9.97252
▁इत्येते	-9.97253
▁बृहत्तम	-9.97291
▁व्याख्यान	-9.97317
▁इत्ययं	-9.97321
▁स्थूल	-9.97399
दिति	-9.97419
पीठ	-9.97425
▁अभिनय	-9.97428
समय	-9.9752
▁संस्कृतिः	-9.97536
▁सर्वकारीय	-9.97544
▁इत्युच्यते	-9.97556
ra	-9.9758
▁मेघ	-9.9758
▁C	-9.97632
बो	-9.97644
रति	-9.97645
ध्व	-9.97667
▁वध	-9.97673
98	-9.97673
समुद्र	-9.97708
▁मधु	-9.97725
सिंहः	-9.97734
▁गणेश	-9.97874
▁अमृतसर	-9.9788
▁क्रान्तिकारिण	-9.97927
ंग	-9.97949
▁शाक	-9.98026
▁सैन्य	-9.98063
▁प्रैषयत्	-9.98083
ीयं	-9.98123
▁कृष्णः	-9.98123
ाधिक	-9.98137
▁केवलम्	-9.98137
राजा	-9.98139
▁महावीरस्य	-9.98212
मध्य	-9.98236
29	-9.98241
▁नेहरू	-9.98258
▁केरोल	-9.98261
मभवत्	-9.98273
द्वार	-9.98327
▁स्वीकृतवान्	-9.98335
▁निर्वाचन	-9.98367
पन्न	-9.98409
▁गान	-9.98411
दिश	-9.98418
धारा	-9.98427
कूट	-9.98547
▁सुप्रसिद्ध	-9.98595
▁उज्जैन	-9.98619
▁मत्स्य	-9.98667
▁तस्मिन्नेव	-9.98671
+	-9.98674
45	-9.9874
▁अनया	-9.98779
सेनायाः	-9.98824
▁ज्ञातवान्	-9.9883
▁सद्यः	-9.98836
▁स्वकीय	-9.98882
राशि	-9.98935
▁पृथिव्याः	-9.98946
▁शत्रु	-9.9895
▁ग्वालियर	-9.98955
निमित्तं	-9.98986
▁यन्त्र	-9.99109
ग्ल	-9.99127
▁दार्शनिक	-9.99138
जन्म	-9.99154
कृ	-9.99169
▁वङ्ग	-9.99191
▁जयपुर	-9.99226
▁महाभारत	-9.99324
ाध्ययन	-9.99359
▁गणना	-9.99365
87	-9.99391
िनो	-9.99407
र्ग	-9.99421
नन्तरं	-9.99423
त्याग	-9.99433
▁दा	-9.99491
▁काश्मीर	-9.99497
मू	-9.99537
ग्रन्थेषु	-9.99549
चिकित्सा	-9.99622
▁प्रतिज्ञा	-9.99622
▁आवश्यक	-9.99632
▁वृत्त	-9.99654
▁आदर्श	-9.99656
▁इत्येतस्य	-9.99663
▁ग्रामस्य	-9.99677
▁भवितुम्	-9.99743
ार्	-9.99746
सामर्थ्य	-9.99798
ान्ते	-9.99814
▁विषयाः	-9.99814
▁त्रयोदश	-9.99837
▁वी	-9.99905
चिन्तन	-9.99917
प्त	-9.99966
तीति	-9.99967
▁अन्यत्र	-9.99972
▁वेदान्त	-9.99981
▁क्ष	-9.99983
▁सुब्रह्मण्य	-9.99992
ाध	-10.0002
भूमौ	-10.0004
▁35	-10.0004
उत्तरदिक्	-10.0007
संस्कार	-10.0007
▁आत्मानं	-10.0012
▁आगताः	-10.0017
स्वर	-10.0017
व्यवहार	-10.0024
द्रव्य	-10.003
▁केन्	-10.0032
▁सर्वा	-10.0037
▁कुमार	-10.0037
▁प्रो	-10.0039
देशं	-10.0042
▁सम्प्रति	-10.0045
▁त्व	-10.0046
परिवार	-10.0048
▁अमर	-10.0053
▁कारागार	-10.0056
▁आङ्ग्लाना	-10.0057
नियमाः	-10.0058
▁कुमारिलभट्ट	-10.0062
q	-10.0063
▁नाट्य	-10.0072
▁क्षेत्रस्य	-10.0072
विद्यालय	-10.0076
▁गमन	-10.0078
67	-10.0079
▁भीखाईजी	-10.008
प्रद	-10.0081
स्थः	-10.0081
पत्ति	-10.0083
▁मुख्यालयः	-10.0085
▁समर्थनं	-10.0087
लक्ष्य	-10.0089
राजमार्गेण	-10.009
▁भव्य	-10.0103
दर्शनं	-10.0106
कानां	-10.0111
▁सन्तोष	-10.0111
▁सम्मुख	-10.0114
सीमा	-10.0115
िल	-10.0115
शब्दस्य	-10.0116
पूर्वदिक्	-10.0116
▁उपलभ्यते	-10.0117
▁75	-10.0119
र्जन	-10.0122
▁भूमिः	-10.013
हृ	-10.0131
र्त	-10.0136
▁दिवसे	-10.0139
भोग	-10.0141
▁शुक्लपक्ष	-10.0145
▁भ्रम	-10.0145
▁मण्डलानि	-10.0148
फ्	-10.0149
कोण	-10.0149
▁आरब्धः	-10.0158
ोर्	-10.016
▁उत्तरप्रदेश	-10.0163
▁चिन्ता	-10.0164
▁क्र	-10.0165
▁लाभ	-10.0166
▁अष्टम	-10.0168
▁गुणाः	-10.0169
ाधि	-10.0171
st	-10.0174
▁काव्ये	-10.0183
▁कदा	-10.019
▁नीत्वा	-10.0191
▁द्वारा	-10.0194
कारि	-10.0194
स्वभाव	-10.0196
ादिभिः	-10.0205
▁प्राप्ताः	-10.0206
▁जलवायुः	-10.021
▁नर्मदा	-10.0218
ाचार	-10.0226
x	-10.0229
वस्त्र	-10.0234
▁रचयिता	-10.0242
▁वेदस्य	-10.0243
▁कीर्ति	-10.0243
पुरे	-10.0245
▁श्रीदीक्षित	-10.0248
▁अनिवार्य	-10.0249
बाई	-10.0263
मन्दिरस्य	-10.0264
▁जाते	-10.0264
वत	-10.0268
▁अज्ञान	-10.0269
▁एकैक	-10.0269
▁अभाव	-10.027
शाखा	-10.0276
▁माघ	-10.0277
▁स्थापितः	-10.0296
नाश	-10.0297
यन्त	-10.0301
▁वेङ्कट	-10.0302
▁सङ्गम	-10.0307
▁जले	-10.0316
▁क्षेत्रेषु	-10.0316
डो	-10.0319
प्राप्ति	-10.0319
▁प्रतीयते	-10.0321
ing	-10.0321
ानन्दः	-10.0326
▁हैदराबाद	-10.0331
▁समय	-10.0337
▁इत्थं	-10.0339
▁द्वितीयः	-10.0343
▁A	-10.0343
▁आधार	-10.0344
36	-10.0351
▁नै	-10.0355
▁संस्कार	-10.0357
▁दक्षिणभागे	-10.0357
ामः	-10.036
▁मातृ	-10.0361
ाचार्यः	-10.0363
वाच	-10.0363
▁भविष्य	-10.0367
99	-10.0369
▁80	-10.0376
म्बर	-10.0387
गिरिः	-10.0387
▁अस्मिन्नेव	-10.0389
▁आरभ्य	-10.0393
35	-10.0394
▁रामायण	-10.0395
▁शुभ	-10.0408
दक्षिण	-10.0409
▁घन	-10.0412
ज्य	-10.0412
प्रदर्शन	-10.0413
▁लक्ष	-10.0414
वार्षिकवृष्टिपात	-10.0415
वो	-10.0416
▁इत्यस्मात्	-10.0418
वर्यः	-10.0427
▁शृङ्गार	-10.0431
▁निर्धारित	-10.0435
ीकृत	-10.0436
▁अर	-10.0442
▁ग्रह	-10.0444
रूपा	-10.0457
▁स्वपुत्र	-10.0465
▁छात्र	-10.0466
़	-10.0472
▁कोणार्क	-10.0472
28	-10.0474
▁निर्मापित	-10.0475
▁वास्तविक	-10.0476
न्ती	-10.0483
▁नर	-10.0488
79	-10.0494
▁दृश्य	-10.0497
▁मासस्य	-10.0498
▁सङ्कल्प	-10.0502
▁वैदेशिक	-10.0502
M	-10.0505
▁प्रस्ताव	-10.0506
▁भागम्	-10.0508
ोद	-10.0513
▁महावीरः	-10.0514
ɪ	-10.0516
▁मयि	-10.0521
th	-10.0527
▁स्थापितम्	-10.0528
▁प्रयत्न	-10.0529
ोद्	-10.0534
▁आङ्ग्लभाषायां	-10.0535
▁आगतवान्	-10.0536
▁चरण	-10.0542
▁मैसूरु	-10.0544
▁सर्	-10.0547
ed	-10.0552
▁वचनं	-10.0555
▁अधि	-10.0555
पूर	-10.0565
ल्प	-10.0565
िष्य	-10.0566
भवत्	-10.0567
▁कारणम्	-10.058
▁क्षण	-10.0583
▁नायकः	-10.0589
▁महती	-10.059
▁उभय	-10.0591
77	-10.0592
▁तत्कालीन	-10.0595
मम	-10.0597
कार्ये	-10.0597
▁श्रीकृष्ण	-10.06
▁नष्ट	-10.0602
▁जयप्रकाशः	-10.0608
स्तरे	-10.0614
▁स्नान	-10.0616
णाम्	-10.0618
▁गणित	-10.0618
नगरेभ्यः	-10.0619
दन	-10.0625
▁राष्ट्रपतेः	-10.0631
▁चतुर्षु	-10.0631
▁न्यू	-10.0638
धो	-10.0641
मेकं	-10.0643
▁श्र	-10.0649
▁प्रयास	-10.0654
तन	-10.0654
▁रक्षण	-10.0654
चित्	-10.0654
▁सङ्घटन	-10.0655
वादि	-10.0656
ोद्योग	-10.0657
यम	-10.0657
बर्	-10.0662
▁1000	-10.0666
समूह	-10.0666
ेश्वरः	-10.0666
▁चिह्न	-10.0667
विश्वविद्यालय	-10.0668
कर्ण	-10.067
ाऽपि	-10.0671
▁सरला	-10.0674
▁रामः	-10.0675
ात्मकं	-10.0676
▁॥'	-10.0676
▁इत्युक्ते	-10.0677
▁विद्यालय	-10.0681
्यु	-10.0684
▁अपा	-10.0684
▁मध्यम	-10.0688
▁भाषणं	-10.0689
िष्यति	-10.069
▁कौ	-10.069
▁सूक्त	-10.0691
▁अभिप्रायः	-10.0691
धु	-10.0693
▁क्षमा	-10.0693
ितानि	-10.0698
देह	-10.0701
▁व्यवहारः	-10.0703
▁अक्टूबर	-10.0704
▁अन्तर	-10.0707
ोदय	-10.071
▁2000	-10.071
▁अनेकेषा	-10.0712
▁परिवहन	-10.0714
▁अवहत्	-10.0723
▁सर्प	-10.0726
ीश्वर	-10.0727
भाष्य	-10.0728
विशेषः	-10.0728
▁अध्यात्म	-10.0728
▁भागवत	-10.0729
केन्द्राणि	-10.0731
▁चिन्तनं	-10.0739
▁वज्र	-10.0741
कर्	-10.0743
तीर्थङ्कर	-10.0744
22	-10.0762
▁सर्वाः	-10.077
प्रसाद	-10.077
▁निर्मितवान्	-10.077
ोर	-10.0772
निवास	-10.0775
मुद्	-10.0776
▁शाखा	-10.078
निरुक्त	-10.0782
▁मार्गदर्शन	-10.0783
समाज	-10.0784
ाऽ	-10.0784
N	-10.0786
णः	-10.0787
▁सौ	-10.0787
▁नीति	-10.0792
▁ग्र	-10.0797
▁तै	-10.0801
27	-10.0801
▁ऋग्वेदः	-10.0801
▁यत	-10.0803
▁सम्पूर्णं	-10.0803
▁मान	-10.0813
of	-10.0816
▁प्राणि	-10.0817
मिश्र	-10.0823
▁महावीर	-10.083
▁जबलपुर	-10.0831
गम्य	-10.0836
▁विहित	-10.0838
•	-10.0844
▁नवम्बर	-10.0845
▁भोजनं	-10.0857
भावना	-10.0858
▁चतुर्	-10.0861
▁परिगण्यते	-10.0862
वध	-10.0863
▁त्रिषु	-10.0865
▁बभूव	-10.0868
▁विजयः	-10.0869
▁हिन्दुत्व	-10.087
▁उपदेश	-10.087
निष्ठ	-10.0872
▁राज्यसभाया	-10.0876
▁बह्व्यः	-10.0881
▁विश्वस्मिन्	-10.0884
वाटिका	-10.0886
विहार	-10.0886
देवस्य	-10.0889
▁मार्गः	-10.0895
▁वेदानां	-10.0899
▁किलोमीटर्	-10.09
ॊ	-10.0901
▁सपादलक्ष	-10.0901
विधि	-10.0901
▁विद्यार्थिनः	-10.0902
▁ऋग्वेदीय	-10.0905
▁आश्चर्य	-10.0908
हरि	-10.0909
कौशल	-10.091
फु	-10.0916
▁32	-10.0917
▁नैवेद्य	-10.0921
▁केवल	-10.0921
जीवनस्य	-10.0923
▁प्रामाण्य	-10.0925
▁रचितवान्	-10.0926
ग्रहण	-10.0932
टु	-10.0932
94	-10.0938
▁उत्पादन	-10.094
वर्तन	-10.0941
▁प्राचीनाः	-10.0942
ाधार	-10.0947
▁इन्द्रियाणि	-10.0948
▁रूपक	-10.0948
▁युक्तः	-10.095
▁प्राप्तु	-10.0951
▁ख्यातः	-10.0955
मार	-10.0957
▁प्रत्येकं	-10.0959
नीति	-10.096
▁परिचय	-10.0961
ाध्याये	-10.0964
क्रीडायाः	-10.0965
▁भोज	-10.097
ल्य	-10.0972
▁व्याघ्र	-10.0973
▁अभावः	-10.0975
महासागर	-10.0975
निर्णय	-10.0977
ीयाः	-10.0979
पत	-10.0981
ध्	-10.0981
मासपर्यन्तं	-10.0984
गड	-10.0987
▁कृताः	-10.0997
▁वाल्मीकिः	-10.1
चन	-10.1004
▁चास्ति	-10.1011
▁भारतस्वतन्त्रता	-10.1012
▁आध्यात्मिक	-10.1013
▁वसति	-10.1014
परा	-10.1019
▁इम्फाल	-10.1021
▁नवम	-10.1022
ध्याय	-10.1024
▁संशोधनं	-10.1025
▁सदस्याः	-10.103
▁विग्रहः	-10.1032
91	-10.1044
मप्य	-10.1044
ेष	-10.1047
▁अग्रिम	-10.1047
▁सत्यपि	-10.1048
▁वाहन	-10.1052
▁पर्वतः	-10.1054
▁तेनैव	-10.1056
▁ज्ञानम्	-10.1056
मती	-10.106
▁वर्जिनिया	-10.1061
जो	-10.1067
लम्ब	-10.1067
यी	-10.1067
श्लोक	-10.1071
योर	-10.1073
▁चिन्तन	-10.1075
ात्र	-10.1076
▁सङ्घ	-10.1077
गच्छति	-10.1081
▁लवण	-10.1086
92	-10.1087
52	-10.1092
व्यय	-10.1096
▁उत्कृष्ट	-10.1102
▁परिवर्तनं	-10.1103
▁भक्तिः	-10.1104
प्रजापतिः	-10.1105
ावस्था	-10.1106
▁पितृ	-10.111
▁राक्षस	-10.1111
्यम्	-10.1116
रः	-10.1119
▁अन्यैः	-10.1122
▁लोकसभाया	-10.1123
▁कर्तव्यम्	-10.1126
▁मिजोराम	-10.1129
▁अवसर	-10.1129
दृष्ट	-10.113
ुष	-10.1135
▁स्वा	-10.1137
▁जाताः	-10.1137
▁शेष	-10.1139
▁योगदानम्	-10.1143
▁बाल्ये	-10.1143
स्थापन	-10.1147
▁फलानि	-10.1153
▁अणु	-10.1153
▁मराठा	-10.1158
य्	-10.1161
▁नगरेषु	-10.1162
▁परिवार	-10.1162
▁बन्ध	-10.1164
▁आन्दोलन	-10.1164
कोश	-10.1165
दार	-10.1169
▁सर्वपल्ल	-10.117
कृते	-10.1171
▁भारतम्	-10.1172
▁चौहान	-10.1173
ग्रन्थाः	-10.1173
▁नेता	-10.1174
ाणाम	-10.1175
▁माधव	-10.1177
नामिका	-10.1179
स्थलम्	-10.1181
▁पद्म	-10.1183
सङ्घ	-10.1184
ात	-10.1186
▁शिखर	-10.1188
▁मास	-10.1188
▁राज्ञ्या	-10.119
96	-10.1193
तपः	-10.1197
ज्ज	-10.12
पद्य	-10.12
▁उद्यम	-10.1204
र्ह	-10.1206
▁पाश्चात्य	-10.1207
स्थितिः	-10.1208
वेदः	-10.1208
▁क्रोध	-10.1213
on	-10.1213
▁वृषभ	-10.1216
▁परम्परा	-10.1217
▁बिहार	-10.122
▁धर्मः	-10.1221
ब्रह्मा	-10.1222
यितुम्	-10.1225
▁धृत्वा	-10.1225
31	-10.1227
वृ	-10.1227
स्क	-10.1232
िकाः	-10.1235
▁ट्र	-10.1238
▁समग्रे	-10.1242
R	-10.1245
▁महाविद्यालय	-10.1245
▁इटली	-10.1245
80	-10.1259
वादी	-10.1261
▁सञ्चार	-10.1262
▁बु	-10.1265
▁हुसैन	-10.1265
▁विद्यमानाः	-10.127
▁सृष्टि	-10.1274
▁महता	-10.1276
महोदय	-10.1277
्म	-10.1277
हृदय	-10.1282
▁शक्नुमः	-10.1286
▁पर्यन्तम्	-10.1286
▁विवरणं	-10.1287
▁आरक्षक	-10.1299
▁स्तम्भ	-10.1302
ात्मिका	-10.1307
▁बद्ध	-10.1308
पुष्प	-10.1311
▁पुराणेषु	-10.1312
▁निज	-10.1313
भवनं	-10.1317
सदस्य	-10.132
▁प्रथमवार	-10.1323
▁गिरि	-10.1325
▁परिवर्तन	-10.1329
▁औद्योगिक	-10.1334
▁मृत्तिका	-10.1335
ोत्सवः	-10.1336
▁महाभारतम्	-10.1342
▁सृष्ट	-10.1345
विश्वविद्यालये	-10.1346
ोपदेश	-10.1348
▁अभ्यास	-10.1349
रक्षण	-10.135
▁ऽ	-10.1354
शिष्य	-10.1357
भूषण	-10.1358
▁चण्डीगढ	-10.1369
बु	-10.137
▁माध्यमेन	-10.137
पालन	-10.1373
एत	-10.1374
▁आधुनिकाः	-10.1376
▁दक्ष	-10.1379
▁विवाद	-10.1381
मणि	-10.1382
पर्यन्त	-10.1387
▁शिक्षकः	-10.1389
▁एतद	-10.1394
▁नार्थ	-10.1396
▁नामक	-10.1399
▁दिशि	-10.1401
▁जो	-10.1403
▁भूमेः	-10.1405
▁पात्र	-10.1405
▁%	-10.1409
▁रामस्य	-10.1411
▁अपरे	-10.1413
▁अनुमान	-10.1414
▁यूरोप	-10.1419
▁रत्न	-10.1419
तस्य	-10.1425
▁आयोजित	-10.1428
रेखा	-10.143
चरण	-10.1432
▁करिष्यति	-10.1436
सां	-10.1437
▁साधना	-10.1438
▁सप्तम	-10.1441
ोचित	-10.1442
▁जून	-10.1444
त्री	-10.1445
▁त्वा	-10.1445
▁तन्त्र	-10.1449
प्रान्तस्य	-10.1453
▁विष	-10.1453
वस	-10.1454
▁जैनधर्मस्य	-10.1457
▁सूर्यस्य	-10.1461
शिल्प	-10.1462
▁वैभव	-10.1462
▁नरायन	-10.1464
▁जीवित	-10.1465
तप	-10.1465
▁चन्द्रशेखर	-10.1466
पार	-10.147
▁लिखिता	-10.1472
▁परम्	-10.1472
नाड	-10.1477
▁परिपूर्ण	-10.1479
us	-10.1481
जीवनं	-10.1481
▁ऋषभ	-10.1484
▁अशोक	-10.1488
▁नक्षत्र	-10.1488
▁मल	-10.1492
ेन्द्रिय	-10.1494
व्यापार	-10.1495
▁प्रबल	-10.1496
▁अधिकृत्य	-10.15
▁नन्द	-10.1501
▁प्रक्रिया	-10.1513
▁एकस्या	-10.1514
स्त्र	-10.1517
ादिकं	-10.1522
स्पर्श	-10.1523
पतिः	-10.1525
जातीय	-10.1526
विलास	-10.1527
र्प	-10.1529
▁मात्रा	-10.1538
▁क्रीडक	-10.1539
ार्थः	-10.1544
53	-10.1548
▁वसन्त	-10.1551
कारस्य	-10.1552
▁श्रेष्ठः	-10.1554
सङ्घस्य	-10.1556
पक्षः	-10.1557
वाल	-10.1558
▁लि	-10.1559
ब्द	-10.1562
उत्सवः	-10.1569
▁ऋषि	-10.157
यानानि	-10.1573
भ्यां	-10.1576
दुःख	-10.1581
▁वर्षेभ्यः	-10.1581
▁गङ्ग	-10.1587
se	-10.1602
▁विराजते	-10.1603
राशिः	-10.1608
▁पृष्ट	-10.1608
ाट	-10.1609
P	-10.1611
▁नरेन्द्र	-10.1613
78	-10.1619
▁पञ्चतन्त्रस्य	-10.1619
▁चम्पा	-10.162
दासः	-10.1622
▁भूमि	-10.1624
शिवमन्दिरं	-10.1633
▁पदं	-10.1635
▁उत्सवे	-10.1644
32	-10.1646
ेष्व	-10.1646
्योः	-10.165
▁वार	-10.1653
41	-10.1657
24	-10.1659
मयं	-10.1659
▁समीचीन	-10.1666
ार्य	-10.1671
सम्प्रदायस्य	-10.1672
▁पर्य	-10.1675
गमन	-10.1677
ta	-10.1683
▁शङ्ख	-10.1688
्र	-10.1689
रेलस्थानक	-10.1689
▁70	-10.169
▁आगतम्	-10.1694
▁लक्ष्मीः	-10.1694
प्स	-10.1697
▁श्रीराम	-10.1698
▁आकर्षक	-10.1699
▁सद्	-10.1699
▁कुम्भ	-10.1703
▁मुक्ति	-10.1703
▁गुरोः	-10.1704
▁लाहोर	-10.1705
सैन्य	-10.1706
34	-10.1706
चिह्न	-10.1708
▁पूर्वमीमांसा	-10.1711
▁यात्रिकाणा	-10.1713
▁नील	-10.1714
कण्ठ	-10.1715
रम	-10.1719
लू	-10.1728
▁संयोग	-10.1732
▁तिस्र	-10.1733
▁सम्मुखं	-10.1741
विवेक	-10.1746
क्षेप	-10.1747
▁उदय	-10.1752
▁द्विशताधिक	-10.1752
त्ति	-10.1753
▁समुद्रतल	-10.1754
▁अधिवर्ष	-10.1755
पुरं	-10.1756
▁सौकर्याय	-10.1759
द्द	-10.176
▁नामकरणसंस्कार	-10.1766
टन	-10.1768
साहित्यस्य	-10.1769
▁समर्थः	-10.177
ब्ब	-10.1773
विस्तार	-10.1773
▁ऊर्ध्व	-10.1773
▁अर्हति	-10.1777
घाट	-10.1781
दो	-10.1787
23	-10.1793
47	-10.1793
▁उत्पद्यते	-10.1795
वाणी	-10.1802
“	-10.1802
खिल	-10.1808
▁इत्याख्या	-10.1811
मभूत्	-10.1813
नै	-10.1815
▁धार	-10.1817
▁नितान्त	-10.1817
▁चिन्तित	-10.1822
▁शि	-10.1823
शताब्द्यां	-10.1827
गान	-10.1829
▁विशेषतः	-10.183
▁सन्धि	-10.1832
सम्प्रदाय	-10.1836
63	-10.1838
▁एकम्	-10.1844
▁अवतार	-10.1847
सहित	-10.1856
प्राप्त	-10.1856
▁कर्णाटके	-10.1857
▁युग	-10.1859
ेदं	-10.1863
▁इतिहासे	-10.1864
▁गुरुगोविन्दसिंह	-10.1865
ə	-10.187
घट्ट	-10.1871
▁राज्येषु	-10.1872
▁निवेदिता	-10.1877
मत्र	-10.188
▁स्वाभाविक	-10.1883
▁कुत्रचित्	-10.1883
▁वेदाः	-10.1884
▁नाशः	-10.1888
दध	-10.1889
▁जयप्रकाश	-10.1889
सनातन	-10.189
बृहदारण्यक	-10.1892
▁अन्त	-10.1896
▁भवे	-10.1898
बह	-10.1904
▁हु	-10.1909
▁रामायणम्	-10.1915
75	-10.1917
▁नो	-10.1918
कोट	-10.1918
▁कठोर	-10.1919
पश्चिम	-10.1922
मुनेः	-10.1929
▁2001	-10.1929
▁चैतन्य	-10.193
द्वितीय	-10.1931
▁संस्काराः	-10.1936
॥'	-10.1939
55	-10.194
माल	-10.1941
▁भावः	-10.1943
भास	-10.1951
दुर्गः	-10.1952
B	-10.1957
▁सिद्धान्तः	-10.1959
प्रान्त	-10.1965
▁देशः	-10.197
▁करोतु	-10.1972
ान्तर्गत	-10.1972
▁सनातनधर्मस्य	-10.1973
ल्स्	-10.1974
▁यच्छति	-10.1974
▁लिखितः	-10.1974
▁किरण	-10.1975
ma	-10.1975
▁कृतानि	-10.1975
▁एण्ड्	-10.1982
▁हर्ष	-10.1983
▁युव	-10.1985
ाभ्यास	-10.1986
राष्ट्रपतित्वेन	-10.1987
▁महल	-10.199
▁लोहपुरुष	-10.1991
▁प्रौढ	-10.1993
स्वामिविवेकानन्द	-10.1993
▁अकथयत्	-10.1993
▁अय	-10.1993
▁जायमान	-10.1995
▁ह्य	-10.1997
▁वार्ता	-10.1998
▁उत्पादने	-10.1998
▁धावन	-10.1999
गि	-10.2
▁फरवरी	-10.2002
▁ऐतिहासिकं	-10.2008
▁नल	-10.2009
क्स	-10.2009
ोद्यम	-10.2011
▁परीक्षा	-10.2011
▁इस्लाम्	-10.2013
वाला	-10.2017
जनक	-10.2018
▁केरल	-10.2019
▁सप्तदश	-10.2019
▁विदेशस्य	-10.202
केनापि	-10.2024
▁रज	-10.2029
▁संहिता	-10.2031
▁प्राणिनः	-10.2037
▁वाम	-10.2038
▁सार्वजनिक	-10.2043
ची	-10.2046
वल	-10.2053
निष्ठा	-10.2057
▁व्यापक	-10.2057
▁अभवताम्	-10.206
प्रवेशः	-10.206
▁कृष्णपक्षस्य	-10.2064
▁प्रभावितः	-10.2065
ावली	-10.2066
त्वस्य	-10.2066
▁साहस	-10.2067
शताब्द	-10.2069
▁वात	-10.2072
गौतमः	-10.2073
तरं	-10.2074
▁बालकः	-10.2074
प्रभाव	-10.2075
61	-10.2078
▁लक्ष्मण	-10.2082
▁वर्त्तते	-10.2082
▁स्वतः	-10.2093
▁सस्यानि	-10.21
▁लौकिक	-10.2102
▁नियत	-10.2103
▁निर्दिश्यते	-10.2105
▁सिद्ध्यति	-10.2105
▁अन्या	-10.2106
▁त्यक्त	-10.2111
▁स्वीकुर्वन्ति	-10.2111
▁पृथिव्या	-10.2116
▁इतोऽप	-10.2117
निमित्त	-10.2119
चित्त	-10.2119
▁G	-10.2119
नद्या	-10.2122
▁विश्वविद्यालयः	-10.2125
▁साक्षरतामान	-10.2131
कारणात्	-10.2136
▁कामः	-10.2138
पञ्चाङ्ग	-10.2144
मन्य	-10.215
▁दे	-10.2151
▁महत्त्वं	-10.2151
गति	-10.2157
▁उच्चारण	-10.2158
▁पर्याप्त	-10.2164
200	-10.2164
38	-10.217
▁सेवां	-10.217
▁पुनर	-10.2171
▁योगानन्दः	-10.2178
कालस्य	-10.2178
▁चिकित्सा	-10.2178
▁उदाहरण	-10.2181
स्त्व	-10.2183
▁स्थापत्य	-10.2187
रौ	-10.2188
▁पशु	-10.2196
▁प्रविष्ट	-10.2202
▁बाग	-10.2202
▁आह	-10.2202
▁मणि	-10.2205
▁दायित्वम्	-10.2208
es	-10.2209
ाग्नि	-10.2212
▁लो	-10.2212
परिवर्तन	-10.2216
▁सफल	-10.2216
▁अकारयत्	-10.2217
लिपिः	-10.2219
मुत्	-10.222
▁नाभवत्	-10.222
व्यास	-10.2221
▁वरुणः	-10.2221
▁खान	-10.2222
▁होली	-10.2223
▁स्पष्टं	-10.2227
▁भाषण	-10.2227
▁अर्जुनः	-10.2228
▁आदौ	-10.2229
▁पृष्ठ	-10.223
▁5.	-10.2236
शिखर	-10.2241
▁विरोधः	-10.2246
▁दिनाङ्क	-10.2247
परिमित	-10.2247
▁तस्यै	-10.2247
मेर	-10.225
▁विश्वास	-10.2252
▁प्रतिपादन	-10.2257
▁सदस्यः	-10.2268
▁आरोप	-10.2269
युक्ता	-10.2271
खण्डे	-10.2272
▁शिक्षणं	-10.2274
▁कल्पित	-10.2275
▁मेरी	-10.2275
▁वक्र	-10.2276
▁उपयुक्त	-10.2278
▁पराजय	-10.2283
▁कर्मणि	-10.2286
ाश्रित	-10.2287
क्रान्त	-10.2292
▁हत्या	-10.2293
आर्	-10.2294
51	-10.2299
▁36	-10.2299
ाइ	-10.2302
मुण्डक	-10.2303
T	-10.2304
▁कर्मणां	-10.2306
▁झ	-10.2307
मृ	-10.2309
▁ऋण	-10.2311
▁चालुक्य	-10.2316
ग्रन्थे	-10.2316
85	-10.2318
▁उद्घोषित	-10.232
▁उचित	-10.2333
▁प्रभाकरः	-10.2334
▁अनन्तर	-10.2337
▁प्रमाणं	-10.2341
▁लण्डन्	-10.2344
ेक	-10.2345
▁पाकिस्थान	-10.2348
▁वर्धमानः	-10.2351
▁ज्ञानस्य	-10.2351
▁नामदेवः	-10.2353
▁धान्य	-10.2355
▁ध्यानम्	-10.2356
ाचरण	-10.2357
▁अस्थापयत्	-10.2357
कारेण	-10.236
ताल	-10.2369
▁उद्देश्य	-10.2371
▁ड	-10.2371
▁मरु	-10.2373
▁दुर्योधन	-10.2378
▁नमः	-10.2378
कल्	-10.238
मार्गेण	-10.2384
कल्याण	-10.2384
राष्ट्रिय	-10.2385
नामा	-10.2387
▁शासकः	-10.2387
▁स्थिति	-10.2388
ेर्	-10.2388
र्भवति	-10.2389
▁कामना	-10.239
णम्	-10.2391
▁तस्या	-10.2393
ीनाम्	-10.2395
केन	-10.2399
छान्दोग्य	-10.24
ग्रा	-10.2401
▁जनयति	-10.2404
▁आगमन	-10.2406
▁क्षत्रिय	-10.241
▁साध्य	-10.2413
कारक	-10.2414
▁व्यास	-10.2414
काराः	-10.2422
शासकैः	-10.2423
▁लोहपुरुषः	-10.2424
▁पुस्तक	-10.2426
▁स्वास्थ्य	-10.2429
▁स्वी	-10.243
▁कठ	-10.2432
आत्मा	-10.2433
▁क्षत्रियः	-10.2437
इत्य	-10.2438
हास	-10.244
▁कथित	-10.2441
ागत	-10.2443
▁Ba	-10.2445
रचन	-10.2446
▁व्याकरणम्	-10.2448
▁स्तोत्राणि	-10.2449
▁दीयते	-10.245
▁मेन	-10.2451
शे	-10.2452
la	-10.2452
▁महात्मागान्धी	-10.2456
▁राजकुमार	-10.2456
▁शस्त्र	-10.2458
ाण्ड	-10.2462
▁प्राचीनतम	-10.2462
▁विद्यार्थि	-10.2464
▁भारतीयसंविधान	-10.2468
▁अहिंसा	-10.2471
▁संस्थया	-10.2479
▁आर्द्र	-10.2482
▁पुन	-10.2482
▁महत्वपूर्ण	-10.2489
परिणाम	-10.2493
▁तदानीन्तन	-10.2494
सर्वकारेण	-10.2496
वर्षीयः	-10.2501
▁आयुर्वेदः	-10.2503
वर्णनं	-10.2504
मस	-10.2505
▁आयुर्वेद	-10.2507
विरोध	-10.2508
▁समाजस्य	-10.2508
ान्दोलनस्य	-10.2512
▁ग्रीष्मर्तौ	-10.2517
▁विजयदशमी	-10.2517
▁केषाञ्चन	-10.2517
▁लेखकः	-10.2523
li	-10.2523
रायः	-10.2527
▁जड	-10.2528
▁त्रिविध	-10.2529
▁आग्रा	-10.2529
▁प्रवेशद्वारम्	-10.2531
▁रक्षणं	-10.2539
▁दीपावली	-10.2541
▁भविष्यन्ति	-10.2544
▁ग्रामेषु	-10.2547
▁स्वीकृत	-10.2549
▁प्रेरित	-10.255
▁दैर्घ्यं	-10.2553
▁दिनेषु	-10.2554
▁वायुयान	-10.2557
वाय	-10.2558
▁पञ्जाबराज्य	-10.256
▁प्रधानमन्त्रि	-10.256
ch	-10.2563
▁वहति	-10.2568
▁स्वीक्रियते	-10.2568
शङ्कराचार्यः	-10.257
ान्दोलन	-10.2571
देवालय	-10.2574
वादस्य	-10.2577
▁कः	-10.258
▁कर्ता	-10.2583
▁भट्ट	-10.2584
कान्त	-10.2586
▁विक्रमसंवत्सर	-10.2588
लय	-10.2593
▁प्रविष्टवान्	-10.2593
ha	-10.2597
▁भारतदेश	-10.2599
▁यस्या	-10.2612
युक्ताः	-10.2613
▁बुध	-10.2615
▁विद्यमाने	-10.2616
दम	-10.2622
ान्तरे	-10.2624
मेल	-10.2625
स्वामिनः	-10.2629
▁भारतीयाना	-10.263
▁प्रमुखा	-10.2633
▁समाचार	-10.2635
▁पुस्तकानि	-10.2639
▁कृष्णा	-10.2639
मिक	-10.264
▁स्थलानि	-10.264
नगरी	-10.2641
ोन्नत	-10.2647
▁सहज	-10.2648
▁निर्मिता	-10.2653
21	-10.2654
▁हिमालयस्य	-10.2655
▁कमल	-10.2655
वाड	-10.2656
हनूमान्	-10.2658
▁1960	-10.266
▁था	-10.2666
it	-10.2666
सर्	-10.267
▁दृष्टवान्	-10.2673
पाप	-10.2674
जनानाम्	-10.2677
▁तुकारामः	-10.2682
ग्रन्थः	-10.2682
मात्रं	-10.2683
▁तदानीं	-10.2686
▁सौन्दर्य	-10.2692
▁रामानुजाचार्यः	-10.2694
▁वर्मा	-10.2695
ावस्थायां	-10.2697
खे	-10.2701
▁प्रकाशित	-10.2701
▁जलबन्ध	-10.2702
▁सतत	-10.2704
दृश	-10.2704
▁अयोध्या	-10.2707
▁1950	-10.2707
ाहार	-10.2708
ष्ट्रियराजमार्गः	-10.2708
▁बर्	-10.2709
ैश्च	-10.2711
▁संयोगिता	-10.2712
▁पाषाण	-10.2715
▁अरविन्दः	-10.2715
▁अयमेव	-10.2717
▁वद	-10.2717
▁ब्र	-10.272
कन्द	-10.2722
▁शीत	-10.2726
▁अत्यजत्	-10.273
मै	-10.2733
▁जयन्तभट्ट	-10.2733
▁निर्वाण	-10.2737
▁अथर्ववेदः	-10.2738
▁चतुर्विंशति	-10.2739
▁इमे	-10.274
▁अद्यत्वे	-10.2743
▁पितरौ	-10.2745
▁पार्थ	-10.2751
▁शोध	-10.2755
▁एकशताधिक	-10.2755
शु	-10.2761
▁हस्ते	-10.2764
चन्द	-10.2764
▁उन्नतः	-10.2773
▁तडाग	-10.2776
▁उत्तराखण्डराज्य	-10.2776
याम	-10.2778
▁किमर्थं	-10.2778
▁किम्	-10.278
▁तापमानं	-10.2783
▁भास	-10.2784
पाट	-10.2785
कण	-10.2787
▁गोपाल	-10.2794
भागस्य	-10.2794
ानुसारम्	-10.2795
ब्राह्मणः	-10.2796
▁कर्मफल	-10.2797
▁आर्य	-10.2797
विशिष्ट	-10.2798
▁पुरुषस्य	-10.28
गोत्र	-10.28
गणेशचतुर्थी	-10.2802
▁श्वेताश्वतर	-10.2802
▁सामवेदः	-10.2803
शास्त्रं	-10.2803
▁दुष्ट	-10.2805
hand	-10.2805
प्राप्तिः	-10.2805
▁वाद	-10.2806
नया	-10.2811
L	-10.2812
▁L	-10.2815
चलच्चित्र	-10.2821
44	-10.2824
▁वातावरणम्	-10.2824
▁काश्चन	-10.2827
▁इच्छन्ति	-10.2828
▁सीमाया	-10.2829
▁अनुसार	-10.2833
▁रावण	-10.2833
▁भक्ताः	-10.2834
▁निरुक्त	-10.2834
स्मै	-10.2835
▁भाष	-10.2838
▁धूम	-10.2838
ङ्घ	-10.2839
▁त्रयाणा	-10.284
ीन्	-10.2841
ीयम्	-10.2842
▁शुक	-10.2846
▁विषयेषु	-10.285
▁विंशति	-10.2853
वस्तूनि	-10.2854
▁हित	-10.2858
▁निश्चय	-10.2858
जलप्रपातः	-10.286
▁जनवरी	-10.286
त्येव	-10.2863
▁विहार	-10.2863
▁गुहा	-10.2863
▁बन्दिन	-10.2867
घात	-10.2871
ीकरणं	-10.2872
▁वृत्तिः	-10.2875
▁जानन्ति	-10.2876
ाधिकारिण	-10.2877
▁बहुभि	-10.288
▁T	-10.2885
मुद्रा	-10.2886
▁अवस्था	-10.2887
▁कारितम्	-10.2888
▁स्थिताः	-10.289
कथन	-10.2891
▁जी	-10.2895
▁शरण	-10.2896
ाचार्यस्य	-10.2897
त्रयं	-10.2898
▁कणाद	-10.2899
▁कॉङ्ग्रेस्	-10.2899
▁विद्यालये	-10.29
at	-10.29
.1	-10.29
बलेन	-10.2901
▁कठिन	-10.2901
▁राजगृह	-10.2902
ानी	-10.2904
▁उक्त्वा	-10.2904
्ये	-10.2906
▁पतन	-10.2918
▁रमणीय	-10.2919
▁राजस्थान	-10.2919
▁स्थानेषु	-10.2921
▁सम्पन्न	-10.2923
लै	-10.2924
▁विद्वान्	-10.2928
▁काव्यस्य	-10.293
▁आन्दोलनं	-10.293
▁विख्यातः	-10.2933
▁ध्रुव	-10.2935
▁समस्या	-10.2935
तरङ्ग	-10.2939
43	-10.2942
ेयुः	-10.2943
देशेषु	-10.2945
▁कबीरदासः	-10.2947
▁पादोन्नत	-10.2949
्युप	-10.2949
▁वृष्टिः	-10.2953
▁प्रदत्तः	-10.2956
▁सै	-10.2958
सङ्ग्रह	-10.2958
▁आद्य	-10.2959
रूपिण	-10.2964
▁मनुस्मृतिः	-10.2973
जोल	-10.2974
▁जैमिनिः	-10.2974
पल	-10.298
▁1)	-10.2983
आरण्यक	-10.2986
33	-10.2991
▁प्रबन्ध	-10.2991
मोह	-10.2992
पार्श्व	-10.2995
वायु	-10.2995
ीन	-10.2996
▁बै	-10.2996
▁विचिन्त्य	-10.2996
कृति	-10.3
्यर्थं	-10.3
▁राज्यानि	-10.3005
मठः	-10.3006
▁कार्ये	-10.3009
▁वैराग्य	-10.3011
▁अपराध	-10.3013
▁कर्	-10.3019
88	-10.3021
▁कृष्णजन्माष्टमी	-10.3021
▁ईसाई	-10.3022
भाषण	-10.3024
िति	-10.3026
▁भवन्तः	-10.3026
कार्यक्रम	-10.3029
कोटि	-10.3033
▁उद्याने	-10.304
65	-10.3042
▁इमा	-10.3043
कृता	-10.3044
नैतिक	-10.3045
वश्य	-10.3046
गाम	-10.305
▁जाति	-10.3052
▁अग्निपुराण	-10.3052
▁समाधि	-10.3053
▁क्रान्ति	-10.3056
प्रेम	-10.3056
मोचन	-10.3057
▁इन्द्रः	-10.306
अर्थशास्त्रम्	-10.3062
▁दिवङ्गतः	-10.3064
दर्शनम्	-10.3066
▁ऎरणाकुळम्	-10.307
▁नागौर	-10.3071
गणित	-10.3072
नारदपुराण	-10.3073
▁पृथ्वी	-10.3076
▁महत्त्वपूर्णं	-10.3078
िकः	-10.3081
▁प्रणीत	-10.3082
▁सरस	-10.3084
गाव	-10.3085
▁तृतीये	-10.3086
71	-10.3087
शक्त्या	-10.309
सुर	-10.3092
▁B	-10.3093
▁समाप्त	-10.3094
रामनवमी	-10.3095
▁मुख्यमन्त्री	-10.3095
▁पार्टी	-10.3095
संस्थाः	-10.3096
्स्	-10.3098
▁अद्वैत	-10.3099
▁सिध्यति	-10.31
▁शिवलिङ्ग	-10.3101
▁व्रत	-10.3102
▁अत्रत्या	-10.3102
▁प्राप	-10.3105
▁प्रकल्प	-10.3111
तुल	-10.3114
प्रवेशद्वारम्	-10.3114
▁सत्ता	-10.3115
दानं	-10.3115
▁विपरीत	-10.3117
▁लेखक	-10.312
▁ब्रह्माण्डपुराण	-10.3121
विवाह	-10.3121
उत्तरमीमांसा	-10.3126
िक्	-10.3128
यू	-10.3131
▁समावेश	-10.3134
▁देवालय	-10.3134
▁बहुविध	-10.3136
▁एतैः	-10.3142
▁कुर्वन्तु	-10.3142
▁शीतल	-10.3145
▁प्राचीनकाले	-10.3148
▁यजुर्वेदः	-10.315
▁शिशु	-10.315
▁भागाः	-10.3154
▁गृहीत	-10.3155
▁संस्थापित	-10.3156
्येन	-10.3157
▁रीति	-10.316
चार्वाक	-10.3161
खु	-10.3161
ोदाहरण	-10.3169
▁मते	-10.317
सप्त	-10.3171
org	-10.3171
▁जार्ज	-10.3172
तायां	-10.3175
▁शैक्षणिक	-10.3178
▁तन्नाम	-10.318
ास्	-10.318
▁विश्वनाथ	-10.3182
▁तल	-10.3182
▁मित	-10.3185
▁शाकम्भरी	-10.3188
हिन्दु	-10.3189
▁200	-10.319
di	-10.3194
▁शिथिल	-10.3194
▁युद्धस्य	-10.3195
▁शतक	-10.3198
42	-10.32
▁प्रसन्न	-10.3201
लाप	-10.3201
▁90	-10.3203
फे	-10.3205
ac	-10.3207
विद्य	-10.3216
▁खा	-10.3219
तैत्तरीय	-10.3219
रामकृष्णपरमहंस	-10.3219
2011	-10.322
▁मीरा	-10.3221
▁सङ्ग	-10.3222
क्रमण	-10.3222
▁कविता	-10.3223
▁मिल	-10.3226
मोद	-10.3227
▁जनानाम्	-10.3227
▁सत्यं	-10.323
▁आज्ञा	-10.3231
▁ज्येष्ठ	-10.3232
ाबाद	-10.3236
▁लक्षण	-10.3236
▁नियुक्तः	-10.3238
▁सौन्दर्यं	-10.324
निर्माणस्य	-10.3241
नीतेः	-10.3242
मव	-10.3243
▁सीमन्तोन्नयन	-10.3245
ङ्गल	-10.3245
▁पाण्डव	-10.3245
भवनम्	-10.325
वृक्षः	-10.325
▁वातावरण	-10.3252
▁एतान्	-10.3255
िकया	-10.3256
▁मण्ड	-10.3256
मूर्तिः	-10.3257
▁परमात्मा	-10.3258
कौ	-10.3258
▁मेलन	-10.3264
▁साहाय्यम्	-10.3265
▁आरम्भे	-10.3267
स्थानेषु	-10.3268
▁नरसिंह	-10.3269
▁अन्त्येष्टि	-10.327
नायकः	-10.3272
कविः	-10.3276
वति	-10.3277
शालायां	-10.3279
षण	-10.3279
▁दिसम्बर	-10.3284
▁लाल	-10.3284
महाविद्यालये	-10.3287
▁मल्ल	-10.3287
ग्राह	-10.3289
सङ्ग्राम	-10.3291
ऊ	-10.3292
▁शूद्रः	-10.3294
▁तस्माद्	-10.3295
▁चैतन्यमहाप्रभुः	-10.3295
ग्रामात्	-10.3296
▁निर्धन	-10.3297
गच्छ	-10.3297
ऽऽ	-10.3299
सम्बद्धाः	-10.3299
िङ्ग्	-10.3301
▁अलभत	-10.3301
▁स्थापितवान्	-10.3303
▁पुरस्कार	-10.3304
ur	-10.3305
▁मूर्ति	-10.3306
▁विद्याभ्यास	-10.331
▁जनेभ्यः	-10.3313
▁Hindu	-10.332
▁उत्पत्तिः	-10.3321
▁भगतसिंहः	-10.3322
məndəl	-10.3323
▁मुद्रण	-10.3323
▁व्यञ्जन	-10.3324
▁फि	-10.3324
▁सञ्चालन	-10.3326
ार्थाः	-10.3334
▁पर्वतस्य	-10.3335
▁मिथ्या	-10.3336
hi	-10.3339
इन्द्रः	-10.3343
▁चतुर्थे	-10.3344
लिया	-10.3349
वासिनः	-10.3349
समितेः	-10.3349
▁श्रम	-10.335
▁रच	-10.335
▁अध	-10.3352
▁स्युः	-10.3358
शिवसम्बद्धानि	-10.3358
▁दर्शनार्थं	-10.3363
लङ्कार	-10.3364
जनपद	-10.3365
शेष	-10.3367
▁रचित	-10.3368
▁श्रीकृष्णस्य	-10.3374
▁विष्णोः	-10.3375
▁समुपलब्ध	-10.3376
▁अलि	-10.3377
▁रुद्रः	-10.3377
▁आजीवन	-10.3379
▁ताप	-10.338
▁अनुभूत	-10.3382
वैश्यः	-10.3382
▁प्रण	-10.3387
▁वसिष्ठ	-10.3387
▁मठ	-10.3393
श्रुत	-10.3396
▁कस्मिंश्चित्	-10.3397
पद्धत्या	-10.3397
▁अन्यतमं	-10.3397
▁प्राविशत्	-10.3398
नगर्या	-10.3399
कर्तृ	-10.34
▁आल	-10.34
▁कथन	-10.3401
लाभ	-10.3406
▁चित्राणि	-10.3407
▁यथार्थ	-10.3411
▁साम्प्रतम्	-10.3412
ेते	-10.3412
सर्वकारस्य	-10.3414
रात्र	-10.342
▁काङ्ग्रेस्	-10.342
▁माण्डूक्य	-10.3422
▁वेदान्तदेशिक	-10.3422
▁उपनयनसंस्कारः	-10.3423
▁सेव	-10.3423
▁बसवेश्वरः	-10.3424
▁तात्या	-10.3424
▁प्रतीक	-10.3425
तत्	-10.3425
▁प्रसिध्द	-10.3426
जान	-10.3427
▁पौराणिक	-10.3427
▁सम्प्रदाय	-10.3431
ुद	-10.3433
▁सामन्त	-10.3436
▁अवस्थित	-10.3441
ावती	-10.3442
▁शक्त	-10.3443
भाषायाम्	-10.3443
▁टाटा	-10.3445
वेदान्तः	-10.3445
▁कुबेरः	-10.3448
▁मिल्लीमीटर्	-10.3448
▁सायं	-10.3448
▁भूय	-10.345
▁आचरण	-10.3451
▁जित	-10.3453
शास्त्रीयसङ्गीत	-10.3458
▁मृत्यु	-10.346
पत्रं	-10.3461
83	-10.3465
रामायण	-10.3466
▁प्रोक्त	-10.3467
▁भुक्त	-10.3467
नाद	-10.347
▁पौनःपुन्य	-10.3474
▁विनायक	-10.3475
▁स्वयम्	-10.3476
▁इतिहासविदा	-10.3479
वृक्ष	-10.3479
▁कोल	-10.348
▁तपस्या	-10.3481
▁महाराज	-10.3487
ार्थे	-10.3488
क्षि	-10.3493
▁पठ	-10.3495
ोन्	-10.3496
▁उल्लिखितम्	-10.3496
▁M	-10.3503
वर्ती	-10.3505
▁चलति	-10.3506
▁अभियोग	-10.3508
▁गुहाः	-10.3509
मिता	-10.3511
76	-10.3512
▁अन्यथा	-10.3515
▁राजेन्द्र	-10.3517
ोऽभूत्	-10.3518
कुमारः	-10.3523
▁पदवीं	-10.3523
▁जाकिर	-10.3525
युगस्य	-10.3526
ुक्त	-10.3527
▁कुरान्	-10.3531
il	-10.3532
▁सनातनधर्मः	-10.3534
▁नरेन्द्रः	-10.3536
तीर	-10.3536
स्थे	-10.354
सेनः	-10.3541
▁वस्तूनां	-10.3542
▁नेपाल	-10.3542
▁शाला	-10.3543
▁अखण्ड	-10.3543
घोष	-10.3544
▁जनपद	-10.3545
▁प्रदेशेषु	-10.3547
▁विवाहा	-10.3548
▁केचित्	-10.3549
▁सदन	-10.3549
ात्मकः	-10.355
▁उद्दिश्य	-10.3551
▁अयच्छन्	-10.3551
▁प्रदत्ता	-10.3556
01	-10.3561
जैन	-10.3561
न्ध	-10.3568
▁अभयारण्य	-10.3571
▁सभायां	-10.3575
▁संस्	-10.3577
लोचन	-10.3578
एस्	-10.3581
▁नितरा	-10.3583
▁प्रेरणा	-10.3583
ादपि	-10.3588
सनातनः	-10.3591
मात्रेण	-10.3596
▁तस्माद	-10.36
दाय	-10.3603
▁जम्मू	-10.3603
स्वरूपं	-10.3603
▁निष्क्रमण	-10.3603
ोत्पत्ति	-10.3603
▁करोमि	-10.3604
सम्पन्न	-10.3608
क्स्	-10.3608
▁पर्वतारोहण	-10.3608
लङ्	-10.3614
▁मनुष्यस्य	-10.3615
▁महेश्वरः	-10.3617
फा	-10.3619
कृत्	-10.3621
▁बहुवार	-10.3623
▁टि	-10.3628
विद्	-10.3629
ानुष्ठान	-10.3629
▁एकवर्ष	-10.3632
▁शो	-10.3635
ष्टा	-10.3636
न्या	-10.3647
▁प्रकट	-10.3648
▁कार्पासः	-10.3651
▁एतौ	-10.3653
तत्त्वम्	-10.3653
▁कुर्युः	-10.3655
▁ईशानः	-10.3657
म्बा	-10.3658
▁विद्वांसः	-10.3659
ळि	-10.3659
▁अनुकूल	-10.3661
▁प्रारम्भिक	-10.3665
वाद्य	-10.3665
वेग	-10.3666
महानगरम्	-10.3669
भ्र	-10.3673
तर्क	-10.3674
तक	-10.3675
ठा	-10.3679
▁हरित	-10.368
▁मधुसूदनसरस्वती	-10.3682
▁मयूर	-10.3682
▁प्रभुपाद	-10.3682
▁वर्णः	-10.3683
विशु	-10.3683
Sam	-10.3683
क्रिय	-10.3685
सभायां	-10.369
▁क्लेश	-10.3691
ितवती	-10.3691
दय	-10.3698
प्रतिमा	-10.3699
▁)	-10.37
▁जना	-10.3702
▁पर्वताः	-10.3703
▁महाभारते	-10.3709
▁भाषाः	-10.371
▁1930	-10.371
ावध	-10.3713
▁खाद्य	-10.3713
▁प्रख्यातः	-10.3716
▁देशेषु	-10.3722
मेवास्ति	-10.3723
▁पति	-10.3723
ालयः	-10.3725
पुरस्य	-10.3725
ाच्च	-10.3727
▁अर्जुनस्य	-10.373
89	-10.3732
▁मीटर	-10.3732
▁शाश्वत	-10.3735
▁नवरात्रोत्सवः	-10.3735
▁त्रिमूर्तयः	-10.3735
▁मू	-10.3737
▁कालिदासस्य	-10.3739
46	-10.3739
▁सुलभ	-10.374
▁दूत	-10.3741
▁पुस्तकं	-10.3742
▁नेतारः	-10.3744
▁कार्यकाल	-10.3745
लीला	-10.3746
▁ततो	-10.3749
ोटा	-10.3751
ुम	-10.3752
▁आङ्ग्लैः	-10.3755
स्वातन्त्र्य	-10.3757
बुद्ध	-10.3759
▁परशुराम	-10.3761
▁गीतानि	-10.3762
▁विलीन	-10.3763
झा	-10.3766
वीर्य	-10.3767
▁साहिब	-10.3769
यथा	-10.3769
▁पश्चिमभागे	-10.3771
▁अध्याय	-10.3771
▁गहन	-10.3772
93	-10.3774
▁उत्पादनं	-10.3774
▁ब्रह्मा	-10.3777
▁इत्येतन्नगर	-10.3778
बुद्धि	-10.378
प्रवाह	-10.3782
ग्रन्थस्य	-10.3783
मनो	-10.3783
▁गरुडपुराणम्	-10.3787
▁समावर्तन	-10.3788
▁विग्रह	-10.3789
▁तदनु	-10.3789
ानुसन्धान	-10.3789
▁स्त्रियः	-10.379
रिव	-10.379
ग्रामं	-10.3791
▁शैली	-10.3793
▁आन	-10.3794
च्य	-10.3799
शतकस्य	-10.3799
चु	-10.38
▁उत्तमं	-10.3801
ारण्य	-10.3802
भे	-10.3803
नयन	-10.3803
तरा	-10.3804
▁इह	-10.3804
▁रि	-10.3804
▁आगच्छति	-10.3806
▁पादमित	-10.3807
▁नियन्त्रण	-10.3809
वाचक	-10.3813
▁इत	-10.3814
▁पत्युः	-10.3814
▁विभक्त	-10.3816
▁चयन	-10.3821
पण्डित	-10.3822
स्वामि	-10.3822
क्षा	-10.3823
▁सङ्	-10.3823
▁तण्डुल	-10.3831
▁परिश्रम	-10.3834
सनातनधर्मः	-10.3835
▁गुर्जर	-10.3837
कृष्ट	-10.3838
▁धनुर्वेदः	-10.3841
E	-10.3844
द्व	-10.3844
▁6.	-10.3846
वतः	-10.3847
अत्र	-10.3849
▁अजायत	-10.385
गद	-10.3858
युक्तम्	-10.3859
▁सत्त्व	-10.386
रक्षाबन्धनम्	-10.386
समस्या	-10.3865
मठ	-10.3867
▁पाक	-10.3867
▁अत्युन्नत	-10.3867
▁अवश्यं	-10.3868
अथर्ववेदीया	-10.3869
▁सर	-10.3869
▁गृहस्थाश्रमः	-10.387
▁राष्ट्रध्वजः	-10.3871
लेखन	-10.3872
▁सत्याग्रह	-10.3876
▁बोधयति	-10.3876
▁45	-10.3878
नक्षत्र	-10.3879
मभि	-10.3881
ज्ञानस्य	-10.3885
▁क्षेत्रम्	-10.3885
▁कुर्वती	-10.3888
▁बारडोली	-10.389
वानप्रस्थाश्रमः	-10.3894
▁विद्यारण्यः	-10.3894
▁तिरु	-10.3897
ब्रह्मपुराणम्	-10.3897
68	-10.3898
स्तरीय	-10.3899
▁तन्त्राणि	-10.39
शासक	-10.3901
भुज	-10.3904
▁आहारपदार्थ	-10.3905
यामि	-10.3906
▁चतुष्षष्टि	-10.3907
▁द्वारका	-10.3908
▁अपेक्षित	-10.3911
▁कल्पः	-10.3912
फी	-10.3913
त्रा	-10.3915
पर्	-10.3918
▁शैव	-10.3919
▁स्वतन्त्रतायाः	-10.392
▁राजस्थानराज्ये	-10.3921
ध्यत्मिक	-10.3921
▁रक्ष	-10.3925
37	-10.3925
▁समूह	-10.3926
मेध	-10.3927
▁देवः	-10.3928
▁सर्वविध	-10.3928
▁मध्यकालीनाः	-10.3931
उर	-10.3932
▁तिल	-10.3932
विष्	-10.3933
▁नट	-10.3934
▁प्रचलिता	-10.3934
▁वने	-10.3934
▁इद	-10.3935
भवन	-10.394
चौ	-10.394
वंशीय	-10.394
श्य	-10.394
▁शिलालेख	-10.3943
▁धनिक	-10.3943
▁ईशव	-10.3944
ण्डेयः	-10.3946
▁जपः	-10.3947
वाचस्पतिमिश्रः	-10.3948
▁लिङ्गपुराणम्	-10.3948
▁रमणमहर्षि	-10.3948
▁अनुसरण	-10.3948
▁गति	-10.3953
चल	-10.3954
▁विचाराः	-10.396
▁विवाहसंस्कारः	-10.396
▁महाभारतस्य	-10.3963
▁सुन्दराणि	-10.3963
▁आन्दोलनस्य	-10.3967
▁रुचिः	-10.3969
लिखित	-10.3971
▁निम्बार्क	-10.3975
▁अन्यदेवताः	-10.3975
स्कन्दपुराणम्	-10.3976
ic	-10.3976
प्रयोगशाला	-10.3977
▁मौलिक	-10.3978
▁मार्का	-10.398
▁नगरी	-10.3981
▁आदर	-10.3984
ध्वज	-10.3984
प्रासाद	-10.3987
प्रवृत्ति	-10.3987
वन्ति	-10.3989
▁स्पष्टतया	-10.3989
धर्मशास्त्रम्	-10.399
▁ततश्च	-10.3991
मना	-10.3993
िणां	-10.3993
▁आप	-10.3994
करोति	-10.3998
▁अन्नप्राशन	-10.4002
▁केशान्तसंस्कार	-10.4002
▁सहस्रशः	-10.4003
ृण	-10.4006
▁वेदारम्भ	-10.4006
▁रूपं	-10.4006
कीर्ति	-10.4007
▁होमः	-10.4007
▁समागत	-10.4011
▁F	-10.4016
▁दन्त	-10.4018
नौ	-10.402
वेर्	-10.4021
प्रसिद्ध	-10.4025
प्राचीन	-10.4027
▁ताभ्या	-10.4029
▁चूडाकर्म	-10.4029
▁जातकर्मसंस्कारः	-10.4029
▁पद्मपुराणम्	-10.4029
▁छ्न्द	-10.4029
विष्णुपुराणम्	-10.4029
▁क्रुद्ध	-10.4029
वर्ण्यव्यवस्था	-10.4029
सनातनधार्मिक	-10.403
महिला	-10.4031
भारते	-10.4036
▁प्रायेण	-10.4036
व्याकरण	-10.4039
▁गर्भाधानसंस्कार	-10.4043
▁मन्त्राणां	-10.4045
▁प्रकरण	-10.4056
▁शिवानन्दसरस्वती	-10.4057
▁गान्धर्वे	-10.4057
▁जौतिष	-10.4057
▁Put	-10.4057
▁नेहरु	-10.4057
गुहा	-10.4058
जुलाई	-10.4058
▁निघण्टुः	-10.4059
▁कथ्यन्ते	-10.4059
ूनां	-10.4062
▁प्रेषितवान्	-10.4063
▁सू	-10.4064
▁कादम्बरी	-10.4065
▁सितम्बर	-10.4065
▁विधान	-10.4069
कारी	-10.407
संस्कृतेः	-10.4071
जित	-10.4073
मतस्य	-10.4076
▁जनन	-10.4077
▁अग्र	-10.4081
▁सती	-10.4083
▁भागवतपुराणम्	-10.4084
ब्रह्मचर्याश्रमः	-10.4084
▁I	-10.4084
▁पुंसवनसंस्कारः	-10.4084
▁श्रीवेङ्कट	-10.4085
युरोप	-10.4087
▁प्रवाह	-10.409
▁500	-10.409
▁भजनम्	-10.4091
वल्लभाचार्यः	-10.4092
भोजन	-10.4093
▁श्रीशङ्कर	-10.4096
▁उद्यानं	-10.4096
ण्य	-10.4097
प्रदान	-10.4099
▁ज्ञानेन	-10.41
▁काली	-10.41
शिवपुराणम	-10.4101
▁सम्प्र	-10.4104
▁कुत्र	-10.4104
5%	-10.4105
मारका	-10.4106
nomination	-10.4111
मूर्तिशिल्पः	-10.4111
▁कर्णवेधसंस्कार	-10.4111
▁कृश्ण	-10.4111
▁भविष्यपुराणम्	-10.4111
vedic	-10.4111
▁समाविष्ट	-10.4112
▁परियोजना	-10.4113
▁बिहु	-10.4113
ग्निपरिग्रह	-10.4114
▁क्रान्तिकारिणां	-10.412
▁अत्य	-10.4121
ाशय	-10.4124
D	-10.4125
▁गोधूमः	-10.4126
मर्थ	-10.413
▁कर्मणः	-10.4132
▁मूलतः	-10.4136
▁सम्मेलन	-10.4136
ीगणेशः	-10.4137
▁वर्णित	-10.4137
isakh	-10.4139
▁योगवासिष्ठ	-10.4139
▁विश्वामित्र	-10.4139
ान्वित	-10.4139
▁हिन्दूसाहित्य	-10.414
सूर्य	-10.4141
▁ओणम्	-10.4141
तत्व	-10.4145
वंशीयानां	-10.4147
▁समुपस्थिता	-10.415
▁पूर्वभागे	-10.4151
▁दुर्गस्य	-10.4151
▁सैनिक	-10.4152
▁अज्ञात	-10.4152
भूता	-10.4152
यज्ञम्	-10.4153
▁पूर्वतन	-10.4154
ण्डि	-10.4157
ायाम्	-10.4158
कोटा	-10.4159
▁अय्यप्पः	-10.4166
वैवर्तपुराणम्	-10.4166
▁अनुष्ठान	-10.4166
▁दयनन्द	-10.4166
▁सन्यासाश्रमः	-10.4166
▁वायुपुराणम्	-10.4166
▁उपलभ्यन्ते	-10.4167
ाग्र	-10.4168
सीदासः	-10.4169
▁तद्यथा	-10.4169
▁क्रियमाण	-10.417
▁आरोग्य	-10.4174
ऐतरेया	-10.4175
गुरुः	-10.4177
्याम्	-10.4181
▁गीता	-10.4182
▁यष्टि	-10.4182
59	-10.4183
▁सामवेदीया	-10.4183
ुर्वेदीयाः	-10.4185
▁तच्च	-10.4187
पु्र	-10.4188
▁पर्वतीयक्षेत्र	-10.4193
ण्डेयपुराण	-10.4194
धान्य	-10.4194
▁पुत्राः	-10.4196
मानः	-10.4196
▁घोषित	-10.42
▁उपाय	-10.4205
▁प्रसङ्ग	-10.4209
▁बन्धन	-10.4209
प्रवास	-10.4211
▁टे	-10.4211
न्तं	-10.4213
आश्रमव्यवस्थ	-10.4214
▁प्रकटित	-10.4216
▁तुलि	-10.4216
▁यादव	-10.4223
▁राज्याभिषेक	-10.4224
▁आगम	-10.4228
प्राण	-10.4229
▁जयसिंह	-10.4229
▁समतल	-10.423
रोध	-10.4232
लिक	-10.4233
ानिब्रह्म	-10.4239
सनातना	-10.4239
▁उत्तमः	-10.424
▁प्रीति	-10.4244
चत्वारिंशत्	-10.4249
▁आवृत	-10.4249
▁भ्रमण	-10.4252
नार	-10.4254
▁ऋग्वेद	-10.4257
▁घोर	-10.4259
▁प्रजाः	-10.4259
ोपयोग	-10.4262
मते	-10.4263
▁उत्पन्न	-10.4264
रत	-10.4265
▁नारिकेल	-10.4265
▁प्रमुखानि	-10.4267
▁अनुवादः	-10.4267
▁द्वादशे	-10.4268
▁इत्येषा	-10.4269
▁ताम्र	-10.427
84	-10.427
▁पञ्चदशे	-10.4271
▁श्रीसञ्जीव	-10.4273
पदस्य	-10.4275
▁पूज	-10.4275
▁प्रतिष्ठित	-10.4277
▁तमवर्ष	-10.4277
▁अलङ्कृत	-10.4278
▁निवस	-10.4283
ेभ्यो	-10.4286
ब्र	-10.4287
दायक	-10.429
▁जनप्रिय	-10.4295
▁साम्प्रदायिक	-10.4295
▁अधिकारः	-10.4298
▁अद्वितीय	-10.4299
▁अयम	-10.4303
▁स्मरण	-10.4304
चतुष्टय	-10.4305
▁अतो	-10.4308
▁पञ्चमे	-10.4312
ाख्यान	-10.4314
▁नेतृत्वे	-10.4315
▁एतयो	-10.432
▁तेलुगु	-10.4323
▁वस्तुनः	-10.4323
▁2008	-10.4324
उत्तरप्रदेशराज्य	-10.4327
▁ले	-10.433
▁1920	-10.4336
▁वो	-10.4337
र्ड्	-10.4338
▁राष्ट्रीय	-10.4339
ाप्त	-10.4341
▁विभक्तम्	-10.4345
▁उद्भव	-10.4351
▁पालन	-10.4352
शब्दः	-10.4356
▁केशव	-10.4358
दन्त	-10.4358
▁आगता	-10.4361
मण्डप	-10.4361
लता	-10.4361
▁आपत्काल	-10.4362
रहितः	-10.4363
विष्ट	-10.4364
प्रबन्ध	-10.4365
संवत्सर	-10.4368
ादेवी	-10.4376
शास्त्रम्	-10.4377
▁प्रप्रथमं	-10.438
▁गच्छ	-10.4391
▁पराजितः	-10.4394
▁वस्त्राणि	-10.4397
▁आचार्यः	-10.4398
गर्भ	-10.4401
विधिः	-10.4401
▁कार्पास	-10.4402
▁पुत्र्या	-10.4403
वर्म	-10.4406
मृत	-10.4409
देव्या	-10.441
ाधिकारी	-10.4412
विधा	-10.4413
स्यां	-10.4419
वितरण	-10.442
मुद	-10.4421
▁उद्यमाः	-10.4423
▁शक्तिः	-10.4426
▁भारः	-10.4426
ेतिहास	-10.4428
▁वाक्	-10.4428
▁रागः	-10.4429
▁मुस्लिम्	-10.4431
▁वर्णनमस्ति	-10.4431
गता	-10.4431
वैज्ञानिक	-10.4433
▁अप्रैल	-10.4437
करं	-10.4438
▁मुनि	-10.4439
▁मांस	-10.444
कर्तव्य	-10.444
is	-10.4441
▁पूर	-10.4445
▁ग्रहण	-10.4445
▁नद्याः	-10.4446
▁प्रताप	-10.4449
विक्रमादित्य	-10.4452
पट्ट	-10.4452
रन्	-10.4455
▁ऋग्वेदे	-10.4456
▁विकसित	-10.4458
ितुम्	-10.4458
▁इच्छ	-10.446
नुसारं	-10.4461
वृत	-10.4463
▁सिक्ख	-10.4464
▁द्रव	-10.4467
मुख्य	-10.4468
am	-10.447
▁कारागारे	-10.4475
वु	-10.4475
ास्यः	-10.4476
ळा	-10.4477
▁हासन	-10.4478
र्न	-10.448
▁तमवर्षपर्यन्त	-10.4481
ीयते	-10.4483
▁रहस्य	-10.4485
▁कृतमस्ति	-10.4489
नद्यो	-10.4494
स्मारक	-10.4495
घो	-10.4496
▁निर्माणे	-10.4499
▁वाराणसी	-10.4501
▁उद्भूता	-10.4503
भो	-10.451
▁लिखितं	-10.451
लित	-10.4521
▁प्रणय	-10.4521
▁जीर्ण	-10.4522
खण्डस्य	-10.4522
भवन्	-10.4523
▁प्रकाशन	-10.4523
▁पूर्णतया	-10.4534
वर्मा	-10.4541
▁सेनायाः	-10.4541
▁मार्गदर्शनं	-10.4541
ेष्ट	-10.4542
▁उद्यानानि	-10.4556
शासनस्य	-10.4557
▁सहृदय	-10.4557
▁साम्य	-10.456
▁धातु	-10.4565
▁तत	-10.4566
ण्डी	-10.4566
सल	-10.4567
▁अन्ध	-10.457
वातावरण	-10.4574
▁नाटकं	-10.4575
यर्	-10.4576
▁प्रतिभाति	-10.4576
्ट	-10.4578
▁अवकाश	-10.4578
▁आत्मारामः	-10.4579
नेक	-10.4581
शक्तेः	-10.4582
▁महत्त्व	-10.4585
▁दृश्यमान	-10.4587
▁अकुरुताम्	-10.4589
▁बलि	-10.459
वादने	-10.459
ro	-10.4593
▁स्वीकृतम्	-10.4597
▁स्तर	-10.4599
V	-10.4603
▁निर्वाचने	-10.4609
गांव	-10.4613
▁व्यतीत	-10.4613
▁माल	-10.4613
रूपः	-10.4613
▁सङ्ग्रहालयः	-10.4613
▁शक	-10.4615
▁अली	-10.4615
कान्	-10.4616
▁पाकिस्तान	-10.4617
▁अनशन	-10.4618
▁केषुचित्	-10.4619
ह्य	-10.4619
सर्वोच्चन्यायालय	-10.462
▁जलम्	-10.4621
id	-10.4624
मोहन	-10.4629
▁नगरजनाः	-10.463
शुद्ध	-10.4632
प्रकारक	-10.4637
फलम्	-10.464
▁जलबन्धः	-10.4641
गौरव	-10.4642
▁सहाय	-10.4643
विग्रह	-10.4646
▁गझनी	-10.4647
योग्य	-10.4647
स्तम्भ	-10.4647
▁महोदयस्य	-10.4652
▁परिगणित	-10.4652
मङ्ग	-10.4652
▁यमुना	-10.4654
प्रकृति	-10.4656
▁पुष्पाणि	-10.4663
▁हास्य	-10.4665
मङ्गल	-10.4668
▁चिन्त	-10.4668
▁प्रशासनं	-10.467
▁नृप	-10.4676
▁स्व्यकरोत्	-10.4676
लैंड	-10.4677
▁नियमाः	-10.4678
▁प्रविश्य	-10.4679
संख्या	-10.468
विर	-10.4681
▁कुशल	-10.4682
▁दीक्षाया	-10.4686
▁वर्णनम्	-10.4687
▁वैष्णव	-10.469
▁षष्ठे	-10.469
▁समुद्रतट	-10.469
▁प्रेषित	-10.4691
कृतिः	-10.4692
▁मगध	-10.4693
▁पञ्चविंशतितम	-10.4695
▁रेखा	-10.4696
▁जाल	-10.4696
यदा	-10.4699
▁अपरः	-10.4701
कर्णाटकस्य	-10.4702
सर्वकारः	-10.4703
▁वश	-10.4703
यन्तः	-10.4704
▁लभ्यन्ते	-10.4705
महानगरात्	-10.471
▁नगर्या	-10.4711
▁अवर्धत	-10.4712
▁स्वर्गलोक	-10.4715
प्रकरण	-10.4716
▁राजस्थानराज्य	-10.4717
▁वारं	-10.4718
स्पर्धायां	-10.472
▁कलह	-10.4723
▁उग्र	-10.4723
थी	-10.4732
▁निष्ठा	-10.4733
▁मनसः	-10.4736
▁स्तुति	-10.4744
ीति	-10.4745
पर्वतशृङ्खला	-10.4747
्यर्थ	-10.4748
तमा	-10.4748
▁दास	-10.475
▁विशेषः	-10.4751
चालन	-10.4753
प्रशस्तिः	-10.4757
रसस्य	-10.4759
ळी	-10.476
▁अवि	-10.476
▁31	-10.476
▁250	-10.4761
यतु	-10.4761
▁प्रतिपादितम्	-10.4765
▁2006	-10.4766
महाराष्ट्र	-10.4766
▁श्रीरामकृष्ण	-10.4768
ुध्द	-10.4769
ोदर	-10.4769
पतेः	-10.477
▁सप्तमे	-10.4771
▁ब्रिटिष्	-10.4771
▁पृष्टवान्	-10.4771
प्रत्यय	-10.4771
शोभ	-10.4777
पद्धति	-10.4778
▁अंशाः	-10.4782
र्स्	-10.4784
▁प्रतिपादित	-10.4784
▁निष्	-10.4785
▁ग्रामीण	-10.4788
▁सन्तः	-10.4791
परिचय	-10.4793
▁द्विविध	-10.4793
▁ब्राह्मणग्रन्थ	-10.4798
000	-10.4799
▁150	-10.4802
क्य	-10.4802
▁अल्	-10.4804
▁रण	-10.4805
▁संज्ञा	-10.4811
▁सुभाष	-10.4811
योगः	-10.4813
▁अचल	-10.4814
नारायणगुरु	-10.4815
गुहाः	-10.4816
बाद्	-10.4818
▁ध्यानं	-10.4818
74	-10.482
▁लिखति	-10.4822
▁भूभाग	-10.4823
विद	-10.483
पूर्	-10.4833
ावस्थाया	-10.4838
▁विचित्र	-10.4841
▁गीतं	-10.4841
दुर	-10.4846
पश्चात्	-10.4847
▁नियुक्त	-10.4849
▁सुदर्शन	-10.4855
▁कारितवान्	-10.4857
▁मुगल	-10.486
▁प्रान्त	-10.4862
दुर्	-10.4864
एतत्	-10.4866
▁द्वितीया	-10.4868
▁प्रज्ञा	-10.4868
ासक्त	-10.4869
▁ग्रन्थेषु	-10.4874
▁महोदय	-10.4875
न्दा	-10.4878
विल	-10.4879
▁सस्यजन्यः	-10.4881
▁परिसर	-10.4882
स्थलेषु	-10.4884
▁न्यायाधीश	-10.4885
▁हनन	-10.4886
्येव	-10.4886
ाधारित	-10.4893
▁चतुर्विध	-10.4895
73	-10.4903
▁पत्रिका	-10.4908
दर्शनस्य	-10.4912
▁सूचयति	-10.4913
नाग	-10.4915
▁विजयनगर	-10.4915
▁भूतानि	-10.4917
▁पक्षः	-10.4919
न्ना	-10.492
स्थिति	-10.492
रक्त	-10.4926
ङ्गा	-10.4927
▁मनु	-10.4928
शाह	-10.4929
माह	-10.493
▁पुरुषार्थ	-10.493
ितो	-10.4934
ोऽप्य	-10.4935
▁डिग्रि	-10.4939
▁1956	-10.4942
▁प्रशस्त	-10.4946
राणा	-10.4948
et	-10.4949
▁एकमेव	-10.4952
▁आवश्यकी	-10.4953
थे	-10.4954
▁व्यक्तित्व	-10.4954
महाविद्यालय	-10.4958
▁चिर	-10.4961
र्द	-10.4964
▁गौड	-10.4966
▁तादृशः	-10.4968
▁कुर्मः	-10.497
रक्षक	-10.497
▁देहल्या	-10.4971
त्वम	-10.4971
▁स्वीकृता	-10.4973
▁दुर्गं	-10.4977
▁त्रय	-10.4983
▁भारतमातु	-10.4985
▁तुर्क	-10.4988
मथ	-10.4994
द्यापि	-10.4995
▁संवाद	-10.4996
▁काव्यं	-10.4998
तिथि	-10.5001
मन्त्रालय	-10.5005
त्मक	-10.5007
▁सम्मत	-10.5008
र्षि	-10.501
▁भवतीति	-10.501
तद	-10.5011
▁आङ्गल	-10.5014
ृत	-10.5015
राजमार्गे	-10.5018
म्बु	-10.5024
▁खनिज	-10.5026
▁स्वजीवन	-10.5028
▁मूर्तिः	-10.503
▁आशा	-10.5031
▁प्रविशति	-10.5033
▁विरुद्ध	-10.5033
▁शव	-10.5036
व्याख्या	-10.5036
संस्थान	-10.5037
प्रान्ते	-10.504
▁शिबिर	-10.5042
▁फे	-10.5042
नुसारेण	-10.5043
▁ओक्	-10.5046
▁एल्	-10.5046
▁अन्यः	-10.5048
▁योजित	-10.505
लक	-10.5052
▁अधिकतम	-10.5054
▁महापुरुष	-10.5056
▁श्याम	-10.506
नू	-10.5065
▁संस्थाप्य	-10.5065
ण्ठ	-10.5067
पत्य	-10.5071
▁गुजराती	-10.5075
▁देव्याः	-10.5076
▁व्यय	-10.5083
▁कवेः	-10.5085
▁अहमद	-10.5086
विद्यालये	-10.5087
▁आचर्यन्ते	-10.5091
नरेश	-10.5093
नर	-10.5094
▁न्यूना	-10.5096
ोक्तम्	-10.5097
▁स्नेह	-10.5098
el	-10.5099
▁एकवारं	-10.51
▁परिचयः	-10.51
▁क्रैस्त	-10.5109
नेर	-10.511
सन्त	-10.5113
▁दशरथ	-10.5115
विन	-10.5119
▁आसीदिति	-10.5121
पूर्वं	-10.5125
▁युवक	-10.5128
किरण	-10.5128
स्वरुप	-10.513
▁मोहम्मद	-10.5131
▁निः	-10.5137
मल्ल	-10.5138
▁प्राध्यापक	-10.5142
समुदाय	-10.5147
पुत्रः	-10.5151
▁मुनिसुव्रतनाथ	-10.5151
▁अपृच्छत्	-10.5151
na	-10.5154
त्वाद्	-10.5156
▁शिवाजी	-10.5156
▁महिलानां	-10.516
करी	-10.5163
सैनिकाः	-10.5166
वय	-10.5168
पत्तने	-10.5174
कर्मणि	-10.5176
▁यजुर्वेद	-10.5176
भविष्य	-10.5178
गुल	-10.5179
उपत्यका	-10.518
▁आकर्षण	-10.5182
प्रियः	-10.5188
पाणि	-10.5188
▁मराठी	-10.519
तन्	-10.5193
गृहे	-10.5193
ाक्ष	-10.5195
क्षेपण	-10.5196
▁केन्द्रीय	-10.5196
▁कलायः	-10.5196
स्थाः	-10.5196
▁नारद	-10.5197
ादीनाम्	-10.5198
ान्न	-10.52
▁वन्य	-10.5202
ान्तरं	-10.5202
▁नरायनयुद्ध	-10.5203
श्वर	-10.5208
िकी	-10.5208
▁धृत	-10.5208
▁रक्षित	-10.5211
ेल	-10.5212
▁गङ्गायाः	-10.5212
▁साहेब	-10.5212
▁1942	-10.5213
▁पठित्वा	-10.5214
▁कामरूप	-10.5214
ख्	-10.5214
▁प्रतिशतम्	-10.5214
तत्त्वं	-10.5215
क्का	-10.5217
▁देवैः	-10.5223
▁अधीन	-10.5225
मूल्य	-10.5225
▁तमिऴ्	-10.5225
गोष्ठ	-10.5226
द्वयस्य	-10.5232
▁भीष्म	-10.5233
घटना	-10.5235
नम	-10.5236
जनान्	-10.5243
▁बेसन्ट्	-10.5243
▁पद्मावती	-10.5243
▁सांख्य	-10.5244
▁एन्	-10.5245
▁चिन्तनम्	-10.5248
▁कापि	-10.525
रता	-10.5253
ाभाव	-10.5253
निर्माणं	-10.5254
▁उदा	-10.5254
▁in	-10.5255
▁तीर्थङ्करः	-10.5255
जाल	-10.5256
▁क्षीर	-10.5257
▁वर्धन	-10.526
जनवरी	-10.5261
▁आन्दोलने	-10.5261
▁प्रारम्भे	-10.5263
▁मानस	-10.5263
▁अनन्तनाथ	-10.5264
लक्ष्मी	-10.5265
नुगुणं	-10.5267
गर्	-10.5267
▁सर्वज्ञ	-10.5275
▁प्रत्येकस्मिन्	-10.5276
▁परित्यज्य	-10.5276
दिष्ट	-10.5278
▁दुर्बल	-10.5279
ीभूत	-10.5279
ेष्वपि	-10.5281
▁महेन्द्र	-10.5285
▁हिन्द	-10.5285
▁रोड	-10.5291
▁स्पर्श	-10.5295
ुर्	-10.53
कै	-10.5306
▁धीर	-10.5306
धृत	-10.5307
जलबन्धः	-10.5308
साम्राज्य	-10.5309
▁विषयं	-10.5309
▁मण्डलमिद	-10.5309
दिशि	-10.5313
▁सौर	-10.5315
गणः	-10.5317
▁उपाधि	-10.5317
▁योगसूत्र	-10.5321
ड्ड	-10.5322
▁तत्पर	-10.5323
तम्	-10.5323
▁प्रकृतेः	-10.5329
विद्यायाः	-10.533
▁कथम्	-10.5333
ादिभ्यः	-10.5334
शक्त	-10.5334
संघ	-10.5338
▁पीडा	-10.5339
▁श्लोकाः	-10.534
नैव	-10.5341
▁युध्द	-10.5343
▁अर्	-10.5347
▁प्रासाद	-10.5348
▁कोश	-10.5348
▁प्राचीनं	-10.5351
ाधीन	-10.5356
▁अध्ययनम्	-10.5356
विष	-10.5358
district	-10.5362
▁विद्यमाना	-10.5364
▁क्रान्तिकारि	-10.5371
▁यास्क	-10.5372
▁प्रयत्नं	-10.5372
मार्गाणां	-10.5373
▁तत्पश्चात्	-10.5373
95	-10.5374
▁भवन	-10.5376
भिर्	-10.5376
▁धूमशकटयान	-10.5377
माप	-10.5385
▁प्रकृतिः	-10.5386
एषः	-10.5388
▁विवेचन	-10.5389
आख्य	-10.5392
▁समर्पित	-10.5392
▁स्थानीय	-10.5395
▁कोण	-10.5397
▁बालिका	-10.5398
▁कव	-10.5399
न्त्य	-10.54
▁शीघ्रं	-10.5408
▁जनता	-10.5408
▁सायण	-10.5409
▁एवास्ति	-10.5414
ताप	-10.5417
▁चर्चां	-10.5422
▁यया	-10.5424
▁स्वस्याः	-10.5427
क्रमः	-10.5427
▁वनानि	-10.5428
▁हुबली	-10.5429
▁प्राप्तानि	-10.543
विषया	-10.543
▁निद्रा	-10.543
▁बृहत्तमं	-10.5432
▁आरक्षकाः	-10.5433
दृष्टि	-10.5437
ित्वा	-10.5442
▁सुखं	-10.5443
▁मृताः	-10.5447
महाशय	-10.5447
▁ऊ	-10.5448
यामः	-10.5452
▁श्रीनगर	-10.5452
मूर्तेः	-10.5453
स्थित्या	-10.5454
▁रघुवंश	-10.5456
तैल	-10.5457
अस्य	-10.5457
स्तस्य	-10.5457
रसः	-10.5459
▁इत्येता	-10.546
▁वर्षर्तौ	-10.546
▁द्र	-10.5461
▁उत्पत्ति	-10.5461
कन्नड	-10.5464
वर्षे	-10.5465
यस्	-10.5466
द्योत	-10.5468
▁प्रवचनं	-10.5468
▁अन्यत्	-10.5474
▁सदैव	-10.5476
कन्या	-10.5478
मृग	-10.548
▁दूरं	-10.5486
गीतानि	-10.5488
ियाना	-10.5492
मधिकृत्य	-10.5492
▁करण	-10.5493
देशानां	-10.5495
हन	-10.5497
▁विद्यमानस्य	-10.5498
▁शुक्ल	-10.55
▁प्रभेद	-10.5501
ापर	-10.5501
रज	-10.5505
▁मौर्य	-10.5507
▁इदानीम्	-10.5511
▁दक्षिणभारतस्य	-10.5511
ter	-10.5511
▁तारा	-10.5512
▁परमात्मनः	-10.5516
▁राज्	-10.552
▁पत्रे	-10.5521
ीयन्ते	-10.5523
▁कर्मणा	-10.5524
तेज	-10.5526
▁कटक	-10.5526
▁प्रथित	-10.5528
▁गतवन्तः	-10.5531
▁पतित	-10.5532
▁भामह	-10.5532
▁गन्धर्व	-10.5532
▁सर्वेषाम्	-10.5533
▁पत	-10.5534
मीमांसा	-10.5534
पाश	-10.5536
▁उद्देशः	-10.5543
प्रसङ्गे	-10.5548
जिज्ञास	-10.5549
▁वैशिष्ट्यम्	-10.5551
चूर्ण	-10.5554
▁प्यारासिंह	-10.5555
▁दामोदर	-10.5555
39	-10.5555
परायण	-10.5558
ीकरोति	-10.5562
▁मृदु	-10.5563
▁सूचित	-10.5564
भेदेन	-10.5566
▁यशो	-10.5574
त्स	-10.5575
▁स्थितानि	-10.5577
▁विवरण	-10.5578
▁साहाय्य	-10.558
जीवने	-10.5583
▁सन्तान	-10.5584
▁सन्दर्भे	-10.5585
▁कृषिकार्य	-10.5586
▁रसः	-10.5587
युक्तानि	-10.559
▁तृतीयः	-10.559
कोण्ड	-10.559
▁दी	-10.5591
पुराणे	-10.5591
▁प्राणिनां	-10.5594
▁पल्लव	-10.5596
▁हैदराबाद्	-10.5596
▁कालिदासः	-10.5599
▁स्थापिता	-10.5601
▁अर्थव्यवस्था	-10.5601
▁रचिताः	-10.5601
▁दुःखं	-10.5603
▁परमेश्वर	-10.5603
वाडा	-10.5603
▁महाभाष्य	-10.5604
पूज	-10.5607
▁सहोदर	-10.5609
▁पोताश्रय	-10.561
▁रात्रि	-10.5611
शोध	-10.5611
श्रेष्ठ	-10.5611
▁प्रशस्ति	-10.5613
ाख्या	-10.5614
▁विश्वविद्यालये	-10.5614
िकायां	-10.5615
सत्	-10.5616
▁अन्यतम	-10.5617
▁वेस्	-10.5618
▁निवृत्ति	-10.5618
प्रवृत्त	-10.5618
▁नयन	-10.5618
▁मानसिक	-10.5619
▁सहसा	-10.5621
▁असि	-10.5622
विज्ञानस्य	-10.5623
ट्र	-10.5623
मिदम्	-10.5625
पत्नी	-10.5627
▁चेन्नम्म	-10.5628
तुः	-10.5629
▁काच	-10.563
केला	-10.5631
▁निमित्त	-10.5632
▁मत्	-10.5633
▁जलाशय	-10.5633
रुद	-10.5639
▁त्यज	-10.564
de	-10.564
ल्लूरु	-10.5643
▁सन्न	-10.5645
ळ्ळ	-10.5645
▁वैशेषिक	-10.5646
▁नाव	-10.5646
सञ्चार	-10.5649
भ्या	-10.5649
▁अपश्यत्	-10.5651
▁भवितुमर्हति	-10.5651
▁आङ्ग्लानुवाद	-10.5652
▁तिरुवनन्तपुर	-10.5652
▁7.	-10.5656
08	-10.5658
गोल	-10.5658
▁महत्त्वम्	-10.5661
त्रिंश	-10.5662
कम	-10.5663
▁विरुद्धं	-10.5664
▁मुद्रा	-10.5665
लोकसभाक्षेत्रे	-10.5666
कुटुम्ब	-10.5669
यर	-10.5671
▁कूप	-10.5672
विमान	-10.5672
▁जनक	-10.5673
वृद्धि	-10.5673
वासर	-10.5673
▁बृहद्	-10.5674
संन्यास	-10.5677
ासुर	-10.5677
▁पर्यटकाः	-10.5677
ॄ	-10.5682
मयी	-10.5682
htm	-10.5682
▁हिन्दवः	-10.5683
ाभवत्	-10.5684
▁अद्यतन	-10.5684
पुरा	-10.5685
▁तावदेव	-10.5686
▁इत्येतेषा	-10.5688
▁भुज	-10.5689
वासी	-10.5691
▁मूलं	-10.5693
▁65	-10.5697
▁मोन	-10.5698
काव्यस्य	-10.5705
▁वेदेषु	-10.5706
स्तूप	-10.5708
▁विस्मय	-10.5715
▁क्वचित्	-10.5715
▁त्रिशताधिक	-10.5715
चरित्र	-10.5716
अमेरिका	-10.5716
लेखक	-10.572
▁राष्ट्रियोद्यान	-10.5721
स्तत्र	-10.5722
जातयः	-10.5722
▁निर्गत	-10.5725
सृज	-10.5727
▁एशिया	-10.5732
मेला	-10.5735
▁पै	-10.5736
▁प्रारब्धम्	-10.5737
▁सञ्योजयत	-10.574
▁आहारः	-10.5745
▁क्व	-10.5747
▁मानवः	-10.5748
▁चर्म	-10.5749
▁पुस्तकस्य	-10.575
फ़	-10.5752
पदम्	-10.5752
ारः	-10.5753
युद्धे	-10.5753
▁नामान्तर	-10.5753
▁अन्	-10.5753
▁शिलाङ्ग	-10.5757
ादित्य	-10.5758
64	-10.5759
▁इङ्ग्लैण्ड	-10.576
▁घोष	-10.5761
▁प्रारब्ध	-10.5764
ni	-10.5764
इत्याख्य	-10.5765
सैट	-10.5766
शब्देन	-10.5766
▁कमपि	-10.5768
▁भागेषु	-10.5768
▁चित्रित	-10.5778
▁सिंहासन	-10.5778
▁एकमास	-10.578
▁मातरम्	-10.578
▁थ	-10.578
ाभ्य	-10.578
र्ध	-10.5783
धौ	-10.5783
श्रवण	-10.5783
ोत्तम	-10.5785
व्यवसाय	-10.5787
यतः	-10.579
क्रि	-10.5792
▁वचनानि	-10.5793
▁शक्यम्	-10.5795
पुट	-10.5797
क्ति	-10.5798
शिक्षणं	-10.5799
ङग	-10.5802
त्सु	-10.5804
▁अपितु	-10.5805
च्छन्	-10.5806
श्रम	-10.5807
▁एवंविध	-10.5809
▁वैज्ञानिकः	-10.5809
▁ईश्वरस्य	-10.581
▁विशद	-10.581
▁72	-10.5811
देशीयाः	-10.5812
▁1991	-10.5813
तवान्	-10.5815
शाख	-10.5819
भ्रष्ट	-10.5823
▁पूर्वस्मिन्	-10.5823
▁सीम	-10.5826
▁आत्मनि	-10.5829
▁सर्ग	-10.5831
डिया	-10.5831
▁उद्यान	-10.5832
रूपाणि	-10.5833
वृष्टि	-10.5834
▁वर्णिता	-10.5834
साध्य	-10.5835
मानस्य	-10.584
▁वाक्कील	-10.5842
साहित्ये	-10.5842
▁शकुन्तला	-10.5844
कार्येषु	-10.5847
लिपे	-10.5848
विन्द	-10.5848
▁विशेषतया	-10.585
▁गन्ध	-10.5852
सङ्ग्रामे	-10.5853
चरितं	-10.5854
राज्ञ	-10.5856
▁मान्	-10.586
नेत्र	-10.5865
लोके	-10.5869
▁मुघल	-10.587
स्ते	-10.5873
▁राज्यानां	-10.5877
▁लोकान्तिकदेवाः	-10.5877
▁एवञ्च	-10.5879
ियन्	-10.5884
पाकिस्थान	-10.5884
▁जन्मनः	-10.5888
▁बौद्धधर्म	-10.5888
▁निश्चयेन	-10.589
संयोजन	-10.5891
पुरस्कार	-10.5895
▁नागरिक	-10.5895
▁कषाय	-10.5896
▁चन्द्रः	-10.5898
▁स्नातक	-10.5899
▁श्लोकेन	-10.5901
▁N	-10.5903
ाश्व	-10.5904
▁स्वरूपं	-10.5908
▁चिल्का	-10.591
▁खिन्न	-10.591
विभागः	-10.5912
वर्येण	-10.5915
यमान	-10.5918
▁साधित	-10.5923
▁निषेध	-10.5923
लचर	-10.5926
चित्राणि	-10.5926
नाडु	-10.5926
▁रामचन्द्र	-10.5928
▁शासने	-10.5928
▁प्रदर्शित	-10.5929
▁गभीर	-10.5929
▁आय	-10.5931
यानेन	-10.5934
परीक्षा	-10.5936
नेव	-10.5938
▁लुधियाना	-10.5943
▁कस्तूरबा	-10.5943
▁कृतयः	-10.5944
बाण	-10.5945
▁गूढ	-10.5945
▁सोमनाथ	-10.5946
जयन्ती	-10.5949
गोष्ठी	-10.5954
▁कर्त्तव्य	-10.5955
▁बाध	-10.5956
▁मन्त्राः	-10.5961
पीड	-10.5962
नित्य	-10.5967
▁पर्वतीय	-10.5967
स्स	-10.5968
ुल	-10.5972
▁दुर	-10.5972
▁कृषक	-10.5973
ख्या	-10.5975
▁याग	-10.5976
▁प्रयाण	-10.5978
▁मन्त्रिण	-10.5978
णो	-10.5979
ब्ल	-10.5985
▁खाद	-10.5985
शालायाः	-10.5994
दौ	-10.5996
▁स्पर्धा	-10.6002
मिल	-10.6004
मौ	-10.6005
ादिक	-10.6007
▁मार्	-10.6007
▁केन्द्रसर्वकार	-10.6008
स्थलस्य	-10.6009
▁निर्माय	-10.6009
▁प्रवर्तते	-10.6013
ीना	-10.6013
सङ्ग्रहालयः	-10.6014
▁वृद्धिः	-10.6018
शतके	-10.6022
िरस्ति	-10.6024
▁आवश्यकम्	-10.6025
▁बृहत्तमः	-10.6025
ेश्वरी	-10.6026
नामकेन	-10.6026
▁ललित	-10.6028
▁तस्यैव	-10.6028
कल्पना	-10.6029
ावश्यक	-10.6029
सृष्ट	-10.6031
पत्राणि	-10.6033
▁कर्णाटकराज्ये	-10.6033
▁उपमण्डल	-10.6034
द्वैत	-10.6035
▁प्रादेशिक	-10.6036
▁पट	-10.6039
संस्थायां	-10.6041
▁अप्र	-10.6041
▁ताड	-10.6041
▁नान्य	-10.6042
प्रभृतयः	-10.6042
कर्माणि	-10.6048
▁कृति	-10.6049
▁दृष्टुं	-10.6051
▁असीत्	-10.6051
07	-10.6054
▁अलौकिक	-10.6055
दिनेषु	-10.6055
H	-10.6055
▁उक्तः	-10.6055
मन्त्री	-10.606
▁विधाय	-10.6061
नाल	-10.6062
▁इदानी	-10.6062
▁वयम्	-10.6064
▁आकर्षणस्य	-10.6065
बेन	-10.6068
ग्रन्थानां	-10.607
यान्	-10.6072
▁37	-10.6072
योगेन	-10.6073
परिहार	-10.6075
vi	-10.608
त्तु	-10.608
▁प्रकाशितम्	-10.608
▁तथ्य	-10.6081
▁भाषासु	-10.6081
▁दीर्घकाल	-10.6083
कार्यम्	-10.6084
दीर्घ	-10.6086
▁ठाकूर	-10.6088
ाक	-10.6089
परिवहन	-10.609
▁एकादशे	-10.6093
वच	-10.6097
शालि	-10.61
्वेनसाङ्ग	-10.61
▁राष्ट्रध्वजस्य	-10.6101
पराक्रम	-10.6101
86	-10.6101
महानगरेण	-10.6102
▁अजयमेरु	-10.6106
मातुः	-10.6107
▁ऑ	-10.6108
▁अन्तर्भूत	-10.6111
वाक्यानि	-10.6111
▁अरबी	-10.6113
▁तिलक	-10.6114
वर्षाणां	-10.6116
प्रणीत	-10.6118
परिमितं	-10.6118
ad	-10.6119
▁शर	-10.6121
गृहं	-10.6122
वात	-10.6123
▁पारम्परिक	-10.6123
वस्तूनां	-10.6126
▁तृण	-10.6129
▁अथर्व	-10.6129
▁शु	-10.613
नदीतीरे	-10.6131
▁विमुक्त	-10.6132
▁देशभक्त	-10.6132
णोः	-10.6133
▁पश्य	-10.6136
पर्य	-10.6136
वंशीयाः	-10.6137
प्रभा	-10.6138
ध्वनि	-10.6139
▁देवालयाः	-10.614
▁स्थापयितुं	-10.614
यस्य	-10.6142
राज्ञा	-10.6142
▁1974	-10.6143
▁कीदृश	-10.6144
▁दृष्टि	-10.6145
▁उद्घोषितम्	-10.6148
▁आपतित	-10.615
▁यच्छन्ति	-10.6151
सामग्री	-10.6151
पूर्णा	-10.6151
संरक्षण	-10.6152
पक्षे	-10.6155
मृत्तिका	-10.6157
▁भवती	-10.6158
▁तरङ्ग	-10.616
▁भो	-10.6161
स्थं	-10.6162
▁योगसूत्रस्य	-10.6164
प्रदेशात्	-10.6166
▁निधन	-10.6168
ावतार	-10.6169
▁भिन्ना	-10.6169
श्रेणी	-10.617
वनं	-10.6171
महोत्सव	-10.6174
▁विकार	-10.6174
▁जुलाई	-10.6174
▁मह्य	-10.6175
▁निरूपित	-10.6176
संग्रह	-10.6176
▁गृहीत्वा	-10.6178
ळ्	-10.618
▁मातुल	-10.618
घर	-10.6182
पक्षेण	-10.6184
काण्डे	-10.6186
▁पत्रं	-10.6186
तुर	-10.6196
6%	-10.6196
प्रस्ताव	-10.6196
प्रमाणेन	-10.6204
लॉ	-10.6208
▁रुप	-10.6208
भैरव	-10.6211
▁ऋषयः	-10.6212
▁विधीयते	-10.6213
तत्र	-10.6214
कर्मणां	-10.6214
पदे	-10.6217
▁उपा	-10.6218
▁तृतीयं	-10.6221
▁सम्पादन	-10.6224
▁शीघ्र	-10.6226
भग	-10.6229
▁ब्रह्मचर्य	-10.623
▁बङ्ग	-10.6234
▁सन्देश	-10.6236
▁आपण	-10.6237
▁संवृत्त	-10.6238
▁वाक्यं	-10.6239
▁शम	-10.624
▁इस्लाम	-10.6241
▁अरचयत्	-10.6244
▁लिमिटेड्	-10.6244
लोकसभाक्षेत्र	-10.6246
▁बन्दी	-10.6254
▁त्यागः	-10.6255
▁द्रोण	-10.6256
▁रामकृष्ण	-10.6258
▁विषयस्य	-10.6261
▁भेदः	-10.6266
क्रमेण	-10.6267
तव	-10.6268
▁वनेषु	-10.6269
▁मेक्	-10.6272
▁इण्डियन्	-10.6272
▁धैर्य	-10.6275
sh	-10.6276
लिप	-10.6276
सिद्धि	-10.6278
▁पुरुषोत्तम	-10.6279
▁देवालयस्य	-10.6281
▁वनं	-10.6282
▁उपदिष्ट	-10.6282
▁गोपालपुर	-10.6283
▁तेषाम	-10.6287
प्रपञ्च	-10.629
तारा	-10.6291
ल्लि	-10.6292
mo	-10.6292
ुद्दीन	-10.6293
यदि	-10.6294
▁दृष्ट्या	-10.6294
▁आसक्तिः	-10.6296
▁वायोः	-10.6297
▁जातं	-10.6298
▁भगिनी	-10.6299
ti	-10.63
▁करणीय	-10.6305
62	-10.6306
द्वा	-10.6306
मयः	-10.6307
हल	-10.6308
दिक्षु	-10.6308
ारम्भे	-10.6309
▁हिन्दुधर्मस्य	-10.631
1.	-10.6311
▁तप	-10.6312
त्यपि	-10.6312
▁उत्पाद्यमान	-10.6313
परम	-10.6315
▁विद्युत्	-10.6317
▁मौ	-10.632
▁वेदे	-10.6321
▁इदमेव	-10.6321
▁दीन	-10.6322
▁अक्षराणि	-10.6322
ाष्ट	-10.6323
ोच्चारण	-10.6324
▁सूर	-10.6325
स्मृति	-10.6325
'।	-10.6328
▁प्रमाणानि	-10.6329
कोष	-10.6335
विंशत	-10.634
▁कथाः	-10.6343
च्छेद	-10.6343
पद्म	-10.6344
▁दायित्व	-10.6344
▁E	-10.6354
पदा	-10.6354
ation	-10.6355
राज्ञः	-10.6356
▁चेतन	-10.636
यता	-10.6362
▁गायक	-10.6364
तयः	-10.6365
ग्ग	-10.6365
▁वेदः	-10.6367
▁आत्मज्ञान	-10.6367
जून	-10.6368
▁मुक्तिः	-10.6368
▁त्वया	-10.637
▁अवशेषाः	-10.637
▁ज्ञातव्य	-10.6376
संस्थया	-10.638
ोरा	-10.638
▁अधिकमात्राया	-10.6382
sa	-10.6382
अन्त	-10.6383
▁पाण्डेय	-10.6386
परम्परायाः	-10.6386
नल	-10.6387
▁सञ्जातः	-10.6387
▁समयं	-10.6387
▁महाकाव्य	-10.6389
गन्ध	-10.6392
▁कृषकाः	-10.6393
ाक्षी	-10.6393
संस्कृति	-10.6394
अनुसन्धान	-10.6398
पूर्वक	-10.6405
लघु	-10.6406
णु	-10.6407
याज्ञवल्क्य	-10.6408
▁ज्ञात	-10.6412
महाभागस्य	-10.6413
▁द्रष्टव्यः	-10.6416
▁अपरा	-10.6418
▁वर्षेषु	-10.6418
▁इयम्	-10.642
▁वेग	-10.642
खल	-10.6422
▁मुक्तः	-10.6425
स्थितेः	-10.6428
वदेव	-10.643
दपि	-10.643
सेनस्य	-10.6431
▁वय	-10.6432
▁अम्बा	-10.6432
▁आभारत	-10.6433
▁उत्तमा	-10.6435
▁अर्थशास्त्र	-10.6435
▁उपवास	-10.6436
रूपम्	-10.644
▁अन्तिमे	-10.644
क्षिप्त	-10.644
▁प्रयोजन	-10.644
▁अष्टाविंशति	-10.644
▁काण्ड	-10.6441
भ्यो	-10.6442
भारती	-10.6447
▁विधेयक	-10.6449
व्यवस्थायाः	-10.645
मुच्यते	-10.645
▁पटियाला	-10.645
शुल्क	-10.6451
पेक्षया	-10.6451
▁रक्षा	-10.6454
राजधानी	-10.6454
▁ईदृश	-10.646
रचित	-10.6463
येन	-10.6463
रसिक	-10.6463
पर्वणि	-10.6465
▁सुल्तान	-10.6467
▁पेन्	-10.6469
▁नवमे	-10.647
दलस्य	-10.6472
▁to	-10.6475
▁वर्षद्वय	-10.6475
गाथा	-10.6478
वेदना	-10.6481
सागरः	-10.6483
▁क्रूर	-10.6486
▁ऐच्छत्	-10.6486
▁बाल्यकाल	-10.649
▁शिल्पकला	-10.6492
यन्ती	-10.6493
विधानसभाक्षेत्र	-10.6494
▁शैल	-10.6494
लव	-10.6496
मन्त्रि	-10.6504
निष्	-10.6506
▁कृष्णस्य	-10.6509
सरोवर	-10.6509
▁शक्य	-10.651
ोऽर्थ	-10.6511
▁वदन्	-10.6513
▁भाटक	-10.652
▁कर्नाटक	-10.652
▁ज्ञेय	-10.6521
निधि	-10.6521
▁स्थापन	-10.6521
ानुभूत	-10.6521
▁भाभा	-10.6522
▁महाबल	-10.6523
शान्त	-10.6523
▁दर्श	-10.6523
▁बाङ्ग्लादेश	-10.6523
▁ब्रह्माण्ड	-10.6524
▁समाचारपत्र	-10.6525
▁तीक्ष्ण	-10.6528
▁स्कन्द	-10.6529
▁प्रम	-10.653
▁मरणं	-10.6532
▁किलोमीटर्मितं	-10.6534
rə	-10.6535
ानुकूल	-10.6537
▁वाद्य	-10.6537
▁सम्मिलित	-10.6539
ोच्च	-10.6542
▁सन्देशं	-10.6543
▁निर्वहण	-10.6544
▁दृश्यं	-10.6546
▁कर्णावती	-10.6548
स्ट्र	-10.6548
▁33	-10.6548
▁नाटकस्य	-10.6551
▁प्रतिबिम्ब	-10.6551
्यौ	-10.6554
रस्य	-10.6555
चतु	-10.6558
▁शिष्यः	-10.6559
▁ज्वाल	-10.6561
▁प्रसिद्धिः	-10.6562
▁बहुमत	-10.6564
प्रदेशाः	-10.6567
गच्छत्	-10.6569
▁उपासना	-10.6569
द्रष्ट	-10.6571
▁जलेन	-10.6572
प्रमुख	-10.6573
कार्यालय	-10.6574
▁प्रपञ्च	-10.6574
सौन्दर्य	-10.6577
▁शाखाः	-10.6578
▁त्वम्	-10.6578
▁स्थलमिद	-10.6578
▁होमी	-10.658
वस्था	-10.6581
▁अभिप्राय	-10.6582
रोगस्य	-10.6583
▁दर्शित	-10.6589
▁शारीरिक	-10.659
▁मीन	-10.6591
lo	-10.6592
▁सामवेदस्य	-10.6592
▁समाजे	-10.6592
नगर्यां	-10.6595
विंशतितम	-10.6595
स्वरेण	-10.6597
▁कोप	-10.6597
▁साधक	-10.6598
वतां	-10.6598
अस्मिन्	-10.6599
य्यः	-10.6601
▁सूर्यः	-10.6602
▁इत्येतन्नगरं	-10.6602
नीयम्	-10.6607
प्रयोजन	-10.6607
िते	-10.661
स्तन	-10.6611
प्रभृति	-10.6612
नाथस्य	-10.6615
▁याच	-10.6619
्यस्य	-10.6619
▁सार्ध	-10.662
विश्वास	-10.6621
▁लिपि	-10.6621
▁एकमात्र	-10.6622
▁मिश्र	-10.6623
प्रश्न	-10.6625
▁धृतराष्ट्र	-10.6626
▁उदयगिरि	-10.6626
▁आश्रमे	-10.6626
ान्यपि	-10.6627
▁मकर	-10.6628
▁इत्यादीना	-10.6628
▁विमर्श	-10.6629
▁सम्पादकः	-10.663
▁सुप्रसिद्धः	-10.6634
वल्लभ	-10.6637
षष्ठ	-10.6638
समित्याः	-10.664
गुर	-10.6641
माध्यम	-10.6643
▁कुरुक्षेत्र	-10.6643
ग्रहस्य	-10.6644
▁केन्द्रमस्ति	-10.6645
▁गौतम	-10.6645
▁एतादृशं	-10.6647
चतुर्	-10.6653
▁अत्युत्तम	-10.6653
ास्तु	-10.6656
▁साक्षात्कार	-10.6656
घा	-10.6657
▁औरङ्गजेब	-10.666
▁प्रायशः	-10.666
▁बाहुल्य	-10.666
▁योजयित्वा	-10.666
▁प्रत्युत	-10.6661
▁8.	-10.6661
▁शतपथब्राह्मण	-10.6661
ज्ञाः	-10.6661
▁संरक्षण	-10.6662
▁1948	-10.6662
▁न्यायशास्त्र	-10.6663
▁55	-10.6663
निवृत्त	-10.6667
पक्षी	-10.6669
▁जलपातः	-10.6671
▁c	-10.6672
▁कालं	-10.6675
▁व्याकरणस्य	-10.6677
ादौ	-10.6677
▁नित्यं	-10.6679
▁समागताः	-10.6682
▁अहङ्कार	-10.6683
▁नासिक	-10.6684
विकार	-10.6685
▁मन्	-10.6686
वर्गस्य	-10.669
जः	-10.6694
▁आचार	-10.6695
▁धनार्जन	-10.6695
योगदिवसः	-10.6695
ोर्निया	-10.6696
▁विरक्त	-10.6697
▁इत्यस्मै	-10.6698
▁जापान	-10.6701
लोप	-10.6702
▁षड	-10.6707
विभागयोग	-10.6714
हिताय	-10.6716
0%	-10.6716
पत्रिका	-10.6717
▁निरूपण	-10.672
▁बौद्धधर्मस्य	-10.672
▁प्रतिष्ठापित	-10.6721
▁दत्ता	-10.6721
▁कारणानि	-10.6722
पात्रं	-10.6722
▁मूलभूत	-10.6725
▁फलम्	-10.6725
▁अस्यैव	-10.6727
प्रिया	-10.6727
▁सोन	-10.6729
ाकाश	-10.6731
▁किफिर	-10.6731
▁मुम्बयी	-10.6731
▁आग्नेय	-10.6731
▁1961	-10.6732
▁1975	-10.6732
बौद्ध	-10.6734
पठन	-10.6739
सुन्दरी	-10.6741
▁बालकाः	-10.6743
ीषु	-10.6746
मण्ड	-10.6747
▁माम्	-10.6747
प्रजा	-10.6748
संहार	-10.6751
▁आगच्छ	-10.6752
▁वृक्षस्य	-10.6752
बन्धन	-10.6752
▁प्रवचन	-10.6754
कुट	-10.6756
विप्लव	-10.6759
▁सर्वासु	-10.676
▁निर्गतः	-10.6761
स्वराः	-10.6762
▁अनन्य	-10.6764
किमपि	-10.6765
▁जनपदम्	-10.6765
▁तिर	-10.6766
सैनिक	-10.6767
▁योगदर्शनम्	-10.6769
रोज	-10.677
बेङ्गळूरु	-10.6772
▁व्यावहारिक	-10.6773
वृद्ध	-10.6775
▁रघु	-10.6776
्न	-10.6777
जागरण	-10.6778
मुखी	-10.6779
▁भीत	-10.6779
वर्ज	-10.6786
राजेन	-10.6787
▁पितर	-10.6788
▁उदर	-10.679
ाधारेण	-10.679
▁अत्रस्थ	-10.6794
जर्मन	-10.6795
▁विलक्षण	-10.6802
▁जनजातयः	-10.6805
▁आजाद	-10.6806
▁विभक्तः	-10.6807
रक्ष	-10.6811
ेच्छा	-10.6812
िनि	-10.6813
शेखर	-10.6814
▁शब्देन	-10.6814
▁छात्राः	-10.6815
▁मद्रास	-10.6816
कर्णाटक	-10.6816
▁महाराजः	-10.6818
▁मिजो	-10.682
▁व्यापारः	-10.6822
▁वृक्षाः	-10.6824
▁उपमा	-10.6825
▁वस	-10.6828
▁कारागारं	-10.6829
▁हृदयं	-10.6831
▁पूर्णं	-10.6831
छा	-10.6836
▁वर्षं	-10.6837
प्राप्त्यै	-10.6837
भावं	-10.6837
ागम	-10.6838
▁शृण्वन्तु	-10.6838
सुन्दर	-10.6844
पय	-10.6846
प्रशासन	-10.6846
सामान्य	-10.6847
प्रचार	-10.6849
▁आक्रान्त	-10.6852
राजनैतिक	-10.6853
▁अग्रज	-10.6853
्ति	-10.6857
सन्ध	-10.6857
▁भारतदेशः	-10.6861
▁गोप	-10.6862
ड्ग	-10.6865
विवरण	-10.6866
▁नाम्नः	-10.6867
समान	-10.6867
▁दमन	-10.6868
▁पराजयः	-10.6868
▁उभौ	-10.6874
दीन	-10.6875
ङ्गी	-10.6877
पदवीं	-10.6877
▁इत्युक्त	-10.6879
▁सम्प्राप्त	-10.6879
▁क्रीडन	-10.688
पाक	-10.6882
▁पठित	-10.6882
▁श्रीमती	-10.6883
▁व्यक्ति	-10.6884
▁39	-10.6886
▁बिहारराज्य	-10.6886
▁मनोहरं	-10.6888
▁व्यक्त	-10.6888
▁पथ	-10.6894
▁नीत	-10.6894
▁ध्यानचन्द	-10.6899
ञ्जन	-10.6899
▁देवताः	-10.69
▁समुद्भूता	-10.69
▁अष्टाङ्गयोगः	-10.69
न्यस्त	-10.6901
संहितायाः	-10.6903
दुर्गं	-10.6905
▁आम्र	-10.6906
▁78	-10.6907
▁श्रद्धया	-10.6911
▁आई	-10.6914
▁नामके	-10.6915
नन्दन	-10.6915
पुरुषः	-10.6915
▁अशक्य	-10.692
▁तत्त्वं	-10.6921
हिन्दुधर्मः	-10.6922
ादय	-10.6924
विरोधी	-10.6925
स्थानस्य	-10.6925
लुक	-10.6926
निर्देश	-10.6926
▁शासक	-10.6927
▁एतादृशी	-10.6928
यितु	-10.693
▁उत्तरं	-10.6933
▁पाण्डित्य	-10.6934
▁अधिकम्	-10.6936
▁स्थितिं	-10.6936
▁इलाहाबाद	-10.6947
▁पतञ्जलियोगसूत्र	-10.6947
▁आह्वान	-10.6947
▁पर्ण	-10.6947
दीय	-10.6947
▁अरब	-10.6949
▁भारतसर्वकारस्य	-10.6951
नार्	-10.6951
▁आयुः	-10.6953
क्षेत्राणि	-10.6954
▁स्वधर्म	-10.6958
यश	-10.696
बोधन	-10.6961
▁संस्कृतस्य	-10.6961
▁सामवेद	-10.6962
ाट्	-10.6964
▁देवानां	-10.6965
भिर	-10.6965
विनाश	-10.6967
▁रक्षक	-10.6969
धे	-10.6973
▁प्रविष्टः	-10.6973
▁सिद्धार्थ	-10.6974
▁शास्त्रीय	-10.6977
▁संयम	-10.6977
ट्स्	-10.6977
▁तात्पर्यम्	-10.6978
▁इदानीन्तन	-10.6984
▁विविधानि	-10.6984
▁धर	-10.6984
▁आन्तरिक	-10.6985
▁इतीद	-10.6987
सदन	-10.6988
वैशेषिकम्	-10.6988
▁पूजां	-10.6991
▁पूज्यते	-10.6992
▁अगस्त	-10.6992
भागेषु	-10.6994
ऐ	-10.6995
▁भगवन्त	-10.6996
ेनापि	-10.6997
▁पितामहः	-10.7
चित्रण	-10.7003
▁हानिः	-10.7006
▁सागरतीर	-10.7006
▁विवाहस्य	-10.7007
▁मोहन	-10.7008
▁स्वय	-10.7011
▁सुखदं	-10.7012
ध्द	-10.7012
संस्कृतिः	-10.7014
▁सहयोग	-10.7014
विन्यास	-10.7016
सैनिकानां	-10.7017
मुद्र	-10.7018
ताया	-10.7018
▁कुर्वाण	-10.702
प्राय	-10.702
▁पार्क्	-10.7024
▁2007	-10.7024
संसदः	-10.7027
तोऽ	-10.7028
▁पृथिवी	-10.7029
▁मई	-10.7029
▁तडागः	-10.7033
▁स्वीकृतः	-10.7034
▁बस	-10.704
▁राजगुरुः	-10.7042
▁केश	-10.7045
दिनानि	-10.7046
वर्धक	-10.705
▁रविशङ्कर	-10.7057
▁1964	-10.7058
गोपाल	-10.7058
▁मध्वाचार्य	-10.7059
▁प्राचीना	-10.7059
रेक	-10.7059
▁सक्रिय	-10.7063
ङ्क्	-10.7063
पश्य	-10.7064
▁अन्यस्य	-10.7066
ामृत	-10.7068
विरोधि	-10.7069
▁दर्शनम्	-10.707
▁लक्षणं	-10.7071
▁अधिकारी	-10.7077
निष	-10.7077
वर्षेभ्यः	-10.7078
▁वाग्	-10.708
▁शयन	-10.7082
व्यवस्थां	-10.7083
मूर्ति	-10.7083
▁छाया	-10.7085
जार	-10.7086
▁समवाय	-10.7088
रचनाया	-10.709
▁अश्	-10.7092
▁अपठत्	-10.7094
स्वरूपेण	-10.7095
▁1980	-10.7095
▁1998	-10.7096
▁सिल्	-10.7096
▁जनसङ्ख्यायाः	-10.7096
िके	-10.7097
▁प्राप्ते	-10.71
म्मा	-10.7101
शिवरात्रिः	-10.7103
बार	-10.7107
सूक्ष्म	-10.7111
उत्तर	-10.7115
गल्	-10.7115
निर्वाह	-10.7121
▁प्राकृतिकं	-10.7123
ुम्	-10.7128
ेसी	-10.7129
वाताटोत्सव	-10.7131
▁कोलोराडो	-10.7131
▁स्थितप्रज्ञ	-10.7132
▁भवेदिति	-10.7132
▁स्वतन्त्रतायै	-10.7133
स्मरण	-10.7134
▁यवनाः	-10.7134
▁व्यवसाय	-10.7134
चालक	-10.7136
गज	-10.7136
कूर्दन	-10.7137
▁देवतानां	-10.7137
गतं	-10.7139
विषयः	-10.7143
प्राधान्य	-10.7143
▁धारा	-10.7144
▁सहैव	-10.7145
दीक्षित	-10.7148
गौड	-10.7149
▁नामकस्य	-10.7149
▁दृष्टः	-10.715
▁उपनिषदः	-10.7151
▁नगरः	-10.7161
ाध्यक्ष	-10.7161
मन्दिरे	-10.7162
र्तु	-10.7164
▁शीतलं	-10.7168
▁फरिश्ता	-10.7168
▁वाशिङ्ग्टन्	-10.7168
▁मान्यता	-10.7169
ल्यान्ड	-10.717
▁सत्यम्	-10.717
▁सर्वोच्च	-10.7171
करणं	-10.7171
▁2014	-10.7172
▁त्रयोदशे	-10.7175
वक्त	-10.7176
शायर	-10.7177
भट्टः	-10.7185
▁पदे	-10.7185
▁वेतन	-10.7185
शिक्ष	-10.7185
▁H	-10.719
▁मूर्त	-10.7192
▁आग्रह	-10.7192
ir	-10.7192
▁नियमः	-10.7195
रुचि	-10.7196
▁अध्यापक	-10.7198
रेण	-10.72
यात्रिक	-10.7201
▁हेतु	-10.7201
▁रचितम्	-10.7201
माया	-10.7201
▁लौह	-10.7202
4%	-10.7202
▁सेनापति	-10.7204
लेण्ड्	-10.7205
▁सुगन्ध	-10.7205
▁अलास्का	-10.7205
▁महाबाहो	-10.7205
▁असहयोगान्दोलन	-10.7205
▁The	-10.7206
भोज	-10.7207
▁परिगण	-10.7209
शाक	-10.7209
▁सङ्ग्रह	-10.7211
3%	-10.7213
कत्वेन	-10.7215
विदुष	-10.7217
▁अवरोध	-10.7219
शूर	-10.722
युग्म	-10.7221
▁पोषण	-10.7224
▁नरक	-10.7224
-1	-10.7225
ाजी	-10.7226
लिन्	-10.7226
सूरि	-10.7226
याग	-10.7228
▁मितवैक्रमाब्द	-10.723
▁त्रिंशत्	-10.7231
▁उत्तीर्णः	-10.7232
▁चित्रे	-10.7233
मानव	-10.7239
ावलि	-10.7241
▁प्रथा	-10.7242
ृष्ट	-10.7243
▁दिल्ली	-10.7244
सम्बद्धा	-10.7248
मई	-10.7249
▁रचितानि	-10.725
कथाः	-10.7251
▁नेतृत्वं	-10.7253
प्रेम्ण	-10.7256
▁सुन्दरः	-10.7258
मार्गं	-10.7258
▁प्रत्यागत	-10.7259
▁गच्छन्	-10.7259
▁पक्षि	-10.7259
ोपनिषद्	-10.7263
▁श्वास	-10.7264
वैदिक	-10.7264
▁बाबा	-10.7267
▁अपेक्षा	-10.7267
▁सिंहः	-10.7275
मुनि	-10.7276
पत्न्य	-10.728
▁34	-10.728
▁एतावत्	-10.7282
▁पर्वतशिखर	-10.7286
▁वर्धमान	-10.7288
विमानस्थानक	-10.7289
रूपस्य	-10.7289
▁परिवर्त	-10.7291
भगवत	-10.7293
▁व्यक्तिः	-10.7293
▁धर्मनाथ	-10.7293
▁भु	-10.7294
क्रियायाः	-10.7294
▁करणीया	-10.7296
▁सेवन	-10.7297
ण्डा	-10.7299
पत्रिकायाः	-10.7304
▁हृदये	-10.7306
ेश्वरस्य	-10.7308
राजवंश	-10.7309
▁स्वीकार	-10.7309
▁पण्डितः	-10.731
▁हंस	-10.731
▁परिणामः	-10.7311
▁मदन	-10.7312
पुण्य	-10.7313
्येत	-10.7313
धातु	-10.7317
▁पाट	-10.7318
▁डिग्री	-10.7319
▁ब्राह्मणाः	-10.7319
▁1996	-10.732
▁हरिद्रा	-10.7321
हेतु	-10.7322
▁श्रावित	-10.7324
▁अष्टवि	-10.7324
मया	-10.7325
▁तमिळ्नाडुराज्य	-10.7329
▁जगन्नाथ	-10.733
▁षण्मास	-10.7334
▁पुत्रौ	-10.7339
▁पीत	-10.7343
निया	-10.7344
विषयाणां	-10.7345
▁साम्राज्य	-10.7346
▁इङ्ग्लैण्ड्	-10.7347
▁अभियान	-10.7347
च्छा	-10.735
▁वर्षात्	-10.735
जलपातः	-10.7352
▁दीर्घा	-10.7356
▁टेक्सास्	-10.7356
▁उद्घाटित	-10.7356
▁त्यागपत्र	-10.7357
▁38	-10.7358
धारी	-10.7358
ङ्कर	-10.7358
▁पूर्वजा	-10.7359
▁न्यूनता	-10.736
▁मद्	-10.7361
▁परिशील	-10.7361
ग्रहणं	-10.7364
ीकरणम्	-10.7364
▁माप	-10.7365
द्वादश	-10.7369
ोक्ति	-10.737
शुद्धि	-10.7372
▁आधिक्येन	-10.7373
भ्रात	-10.7373
▁दातव्य	-10.7373
▁संशोधनम्	-10.738
▁अक	-10.738
नौका	-10.7381
▁भवनस्य	-10.7383
▁रै	-10.7386
ुत्तर	-10.739
ष्व	-10.7394
गुणाः	-10.7394
▁कनक	-10.7397
▁सङ्कलन	-10.7397
81	-10.7398
▁कारणीभूत	-10.74
▁कस्य	-10.7403
नृत्यं	-10.7404
▁सङ्घस्य	-10.7408
कालात्	-10.7409
▁सार्थक	-10.741
▁अन्ततो	-10.7411
▁प्रस्थित	-10.7413
▁मालवा	-10.7413
मेघ	-10.7417
ga	-10.742
ोद्भव	-10.742
▁पौर	-10.7421
▁कृतिः	-10.7422
▁चातुर्मास्य	-10.7423
▁न्यायालय	-10.7425
▁नासन्	-10.7426
▁अधिकारिणः	-10.7427
बाल्	-10.7427
▁वासुदेव	-10.7432
शिया	-10.7432
▁आस्ट्रेलिया	-10.7433
▁जै	-10.7435
ध्वंस	-10.7435
सिको	-10.7436
▁निर्मीयते	-10.7436
▁अनेकान्	-10.7436
ून्	-10.7436
सङ्घटन	-10.7438
ow	-10.7439
▁वर्धित	-10.744
▁पाटण	-10.7442
▁प्राप्तिः	-10.7446
▁दक्षिणा	-10.7447
ल्ली	-10.7448
▁पट्ट	-10.7457
▁42	-10.7458
▁विशालं	-10.7464
▁वेदाङ्ग	-10.7464
घन	-10.7464
▁समास	-10.7464
गोचर	-10.7466
▁एकेन	-10.7471
▁यार्क्	-10.7471
▁स्थगित	-10.7471
▁आशीर्वाद	-10.7473
▁चन्द्रस्य	-10.7473
▁वाशिङ्	-10.7473
▁उत्तमम्	-10.7473
▁अददात्	-10.7474
ाशयः	-10.7474
▁आकार	-10.7475
तृतीय	-10.7476
मार्	-10.7477
प्रणाली	-10.7479
।'	-10.7479
▁एकाकी	-10.7483
▁सम्मानितः	-10.7483
मार्च	-10.7483
मतं	-10.7484
सूच	-10.7484
▁कम्प	-10.7487
मस्य	-10.7487
▁आवश्यकं	-10.7487
मुनिः	-10.7489
तटे	-10.7497
र्ड	-10.7502
्यो	-10.7508
ङ्गु	-10.7508
जिन	-10.7509
▁आव	-10.751
▁रीवा	-10.7511
▁चूर्ण	-10.7511
▁विभक्ताः	-10.7513
कीर्त	-10.7516
कुर्व	-10.7517
▁क्रिकेट्	-10.7517
जर	-10.7517
तीरे	-10.752
त्र्य	-10.7521
युगे	-10.7522
निर्वाचने	-10.7522
▁नगराणि	-10.7522
युता	-10.7523
▁सायणाचार्य	-10.7526
▁चार्वाक	-10.7527
दिनाङ्के	-10.7528
▁मन्ये	-10.7529
साम्राज्यं	-10.7529
ाभावात्	-10.7529
▁शिर	-10.7533
▁गता	-10.7539
जातेः	-10.7539
मुण्ड	-10.7539
सम्पर्क	-10.7542
▁अध्ययने	-10.7544
इदं	-10.7544
चिह्नानि	-10.7545
तत्त्वस्य	-10.7546
शैल	-10.7547
▁रोचते	-10.7548
▁शुक्र	-10.7548
▁जनकः	-10.7548
जर्सी	-10.7549
▁भूकम्प	-10.7549
▁1940	-10.755
तुल्य	-10.7553
ाली	-10.7555
▁2010	-10.7555
कक्षाया	-10.7556
▁व्याख्यात	-10.7558
▁शपथ	-10.7559
66	-10.7562
हैदर	-10.7563
▁प्रेष	-10.7563
▁कथनं	-10.7564
▁लीला	-10.7567
ज्वल	-10.757
▁काक	-10.7571
▁आङ्ग्लविरुद्ध	-10.7574
▁दया	-10.7574
▁ब्रह्मसम्बद्ध	-10.7574
समर्थ	-10.7574
▁स्फुट	-10.7574
▁लिखिताः	-10.7575
▁काव्यानि	-10.7577
हेम	-10.7578
▁77	-10.7579
स्फोट	-10.7579
▁स्थ	-10.7579
देशेन	-10.758
प्रवर्तक	-10.7582
सावरकर	-10.7582
दिनं	-10.7583
▁हृदि	-10.7587
▁1931	-10.7588
▁आगामि	-10.7588
ोत्पन्न	-10.759
जातिः	-10.759
▁स्त्रीणां	-10.7591
मानम्	-10.7591
ोपाध्याय	-10.7593
▁नाट्यशास्त्र	-10.7594
लभ	-10.7594
▁प्रत्या	-10.7595
▁सञ्जय	-10.7598
▁उदाहरणम्	-10.7598
▁लाहो	-10.7601
▁पृ	-10.7601
कुमारी	-10.7603
▁पर्वते	-10.7604
▁प्रशासनिक	-10.7606
रक्षा	-10.7607
वैविध्य	-10.7609
ादर	-10.7609
9%	-10.7611
▁मथुरा	-10.7612
लिफ़	-10.7614
▁पुरुषाणां	-10.7615
▁ब्रह्मपुर	-10.7617
मधुर	-10.7617
▁सङ्गृहीत	-10.762
▁सङ्घर्ष	-10.7621
▁एतावता	-10.7621
▁आङ्ग्लभाषा	-10.7622
ऽत्र	-10.7625
▁मनोरञ्जन	-10.7626
लोह	-10.7626
▁विश्लेषण	-10.7626
▁सुविधा	-10.7631
▁तत्त्वज्ञान	-10.7636
िनेस	-10.764
ho	-10.7641
▁बर	-10.7643
▁फलकम्	-10.7644
वादन	-10.7645
▁सम्भाषण	-10.7647
▁द्व	-10.7647
▁महाविद्यालये	-10.765
▁तर	-10.765
▁परामर्श	-10.7652
▁जग	-10.7653
करोत्	-10.7654
▁शासकाः	-10.7655
कैः	-10.7655
▁इत्यादिक	-10.7658
▁मासः	-10.7659
स्तोत्र	-10.7665
ान्दीपुर	-10.7665
▁असौ	-10.7666
▁प्रोत्साहन	-10.7666
यानं	-10.7668
संस्थानम्	-10.7668
ष्टे	-10.7669
कात्यायन	-10.7671
▁त्यक्तवान्	-10.7674
‘	-10.7676
▁अपरत्र	-10.7678
▁पाणिनि	-10.7681
▁अनेनैव	-10.7687
वसरे	-10.769
दायित्व	-10.7691
युतः	-10.7692
▁भवनं	-10.7693
▁एप्रिल्	-10.7694
थो	-10.7699
रसा	-10.7701
धानसभाक्षेत्राणि	-10.7702
पूर्णं	-10.7703
▁न्यवसत्	-10.7704
▁साउथ	-10.7704
▁वायव्य	-10.7704
▁समुत्पन्न	-10.7704
▁नमिनाथ	-10.7704
▁पर्	-10.7704
सम्बन्धः	-10.7705
▁न्यवेदयत्	-10.7706
▁उत्तराखण्ड	-10.7707
▁रावणः	-10.7708
र्ट्	-10.771
▁नर्मदाया	-10.771
शाली	-10.771
ोपलब्ध	-10.771
देशात्	-10.7711
▁मुख्याः	-10.7711
शङ्क	-10.7711
▁क्रिस्त	-10.7717
▁कर्क	-10.7718
▁पुष्टि	-10.7721
▁प्रयासः	-10.7722
▁64	-10.7724
सन्देश	-10.7724
तायै	-10.7726
देवेन	-10.7727
सम्बन्धि	-10.7727
ज्ञात	-10.773
रोगः	-10.7731
वर्णः	-10.7731
▁उद्यानम्	-10.7733
▁परमार्थ	-10.7741
▁विस्कान्सिन्	-10.7743
िज़ो	-10.7744
▁पदवी	-10.7744
▁प्रमाणम्	-10.7745
▁नाटके	-10.7746
▁केसर	-10.7747
▁परमात्म	-10.775
▁भारती	-10.7751
▁बेगम	-10.7752
वृक्षस्य	-10.7755
▁प्रयासाः	-10.7755
▁तण्डुलः	-10.7755
भवति	-10.7759
▁कुश	-10.776
शासित	-10.776
▁दक्षिणभारते	-10.7761
▁महाकाव्यं	-10.7761
वैद्य	-10.7761
▁दिनं	-10.7763
रै	-10.7765
जनजातेः	-10.7768
होर	-10.7773
▁अस्माकम्	-10.7773
वेनिया	-10.7774
▁निस्	-10.7775
▁स्थलेषु	-10.7778
▁अधो	-10.7778
सङ्ग्रहालय	-10.7778
मार्गाः	-10.7778
रम्भ	-10.7781
▁ओरेगन्	-10.7782
uttaranchal	-10.7782
▁सुष्ठु	-10.7782
▁डकोटा	-10.7783
मित्युच्यते	-10.7784
▁हिन्दुधर्म	-10.7793
▁महत्व	-10.7794
▁रूपेण	-10.7796
▁पुत्रं	-10.7797
अनु	-10.7798
▁ज्ञाता	-10.7798
भाषासु	-10.7799
ca	-10.7803
सरः	-10.7803
▁समूहः	-10.7806
श्रेण्या	-10.7807
▁पूज्य	-10.7809
▁ब्या	-10.7811
ाङ्के	-10.7815
▁ग्रीष्म	-10.7817
पेक्षित	-10.7818
▁लक्ष्यम्	-10.7818
▁उपस्थिताः	-10.7818
▁पृच्छति	-10.7822
▁नेवाडा	-10.7823
प्रौद्योगिकी	-10.7823
▁1905	-10.7823
▁सदृशं	-10.7823
▁गिरिधाम	-10.7823
▁प्रवर्तित	-10.7826
▁आगतवन्तः	-10.7827
वादिनः	-10.7829
रहस्य	-10.7829
▁प्रतिष्ठा	-10.7829
2%	-10.783
▁लाला	-10.7832
मञ्जरी	-10.7834
िमे	-10.7836
कू	-10.7836
ऊँ	-10.7839
▁मनोहर	-10.7841
▁केन्द्राणि	-10.7842
लोकसभाक्षेत्रम्	-10.7842
कूल	-10.7843
▁जगत	-10.7843
▁l	-10.7844
पृथ्वीराजेन	-10.7844
▁विद	-10.7846
भागाः	-10.7846
शासकानां	-10.7848
▁प्रदत्त	-10.7849
▁शर्करा	-10.785
▁पात	-10.7855
ाचल	-10.7856
▁विधानं	-10.7858
ुल्	-10.7858
▁निवेश	-10.7859
▁वेगेन	-10.786
▁हवाई	-10.7862
▁1967	-10.7864
▁चतुर	-10.7864
नरसिंह	-10.7864
▁धरन्ति	-10.7865
भट	-10.787
वृत्तिः	-10.7872
▁आस	-10.7876
▁हिंसा	-10.7876
ान्दोलने	-10.7881
ीकरणे	-10.7882
▁विशिष्टः	-10.7891
um	-10.7895
करणे	-10.7895
▁परिकल्पना	-10.7895
▁सास	-10.7896
▁स्वार्थ	-10.7896
▁प्रसन्नः	-10.7896
मात्रम्	-10.7896
▁घण्टा	-10.7897
ia	-10.7897
डल	-10.7898
▁विषयान्	-10.7902
▁अर्कान्स	-10.7902
▁मिसिसिप	-10.7902
▁सम्मेदशिखर	-10.7902
▁प्रत्युत्तर	-10.7903
श्रान्त	-10.7904
बालक	-10.7905
▁स्वयोगदान	-10.7906
▁चोळ	-10.7906
▁जिनालय	-10.7907
▁नदीनां	-10.7907
▁स्वप्नशास्त्रिण	-10.7908
▁दुर्गे	-10.7909
नगरेषु	-10.791
▁प्राच्य	-10.791
देशीयः	-10.7911
नद्यः	-10.7911
▁सञ्जातम्	-10.7913
▁प्रशान्त	-10.7913
▁तवाङ्ग	-10.7913
▁पतति	-10.7914
पिण्ड	-10.7916
श्चित्	-10.7918
▁कस्या	-10.7924
▁चतुर्णा	-10.7924
▁वर्णिताः	-10.7926
दिवसे	-10.7927
प्रत्य	-10.7928
▁लोकसभा	-10.793
रूपक	-10.793
▁फेक	-10.7932
▁अनादि	-10.7934
लोभ	-10.7935
मरण	-10.7937
प्राणि	-10.7938
▁एतासा	-10.794
वातावरणे	-10.7941
▁अध्य	-10.7942
▁कनेक्टिकट्	-10.7942
▁फ्लोरिडा	-10.7942
▁लूइस	-10.7942
यश्च	-10.7944
03	-10.7944
▁अभिनवगुप्त	-10.7946
शान्ति	-10.7947
▁ब्रह्मगुप्त	-10.795
नाट्य	-10.795
▁कौरव	-10.795
वर्षस्य	-10.7951
▁भाष्यकार	-10.7953
▁स्वाधीन	-10.7956
▁बाई	-10.7957
क्रमे	-10.7957
▁कार्यालय	-10.7958
स्तव	-10.7959
▁पूर्णा	-10.7959
▁विस्तृतः	-10.7959
शैलप्रस्थ	-10.7964
▁नार	-10.7965
▁कन्नडभाषा	-10.7967
रोगेण	-10.797
▁पञ्चतन्त्र	-10.7973
▁योगदान	-10.7973
ब्राह्मणम्	-10.7973
▁लाभः	-10.7976
▁प्रवृत्ति	-10.7977
सुविधा	-10.7978
वलय	-10.7981
कथय	-10.7981
ासचुसेट्	-10.7982
▁इलिन	-10.7983
राघव	-10.7983
▁1966	-10.7983
▁शब्दाः	-10.7985
▁अधीतवान्	-10.7987
▁हस्ति	-10.7987
▁पर्याय	-10.7988
▁देशस्	-10.799
▁स्वदेश	-10.7991
▁भारतीयसंस्कृतेः	-10.7991
वर्य	-10.7994
ज्ञानम्	-10.7994
प्रयत्न	-10.7995
तस्	-10.8001
खर	-10.8002
सन्धिः	-10.8003
सहितं	-10.8004
po	-10.8004
हर्	-10.8004
▁वर्णितम्	-10.8006
परिमाण	-10.8007
▁लै	-10.8008
बन्धु	-10.8009
▁पृथ्वीराजविजय	-10.801
टकी	-10.8012
महाद्वीपे	-10.8014
▁भरतः	-10.8016
▁मानवस्य	-10.8017
▁क्ल	-10.8018
▁एतदर्थ	-10.802
▁अवध	-10.8021
टाना	-10.8021
▁संस्कृतभाषा	-10.8022
थ्	-10.8022
भूमेः	-10.8023
▁मिसूरी	-10.8023
▁व्यवहरन्ति	-10.8023
maps	-10.8023
▁अयोवा	-10.8023
हायो	-10.8023
▁सप्ताह	-10.8023
▁आनीत	-10.8023
▁टोपे	-10.8024
▁चतस्र	-10.8024
▁सञ्जाता	-10.8025
▁कालक्रमेण	-10.8026
▁उवाच	-10.8027
तेन	-10.8028
चुङ्ग	-10.8028
▁स्मरणं	-10.8031
▁पण्डिताः	-10.8033
▁महर्षि	-10.8033
ेतर	-10.8034
2.	-10.8034
अप्रैल	-10.8035
शून्य	-10.8036
निरूपण	-10.8036
▁अष्टमे	-10.8036
▁प्रभवति	-10.8037
ईस्ट्	-10.8037
▁पार्श्व	-10.8038
▁अव्यक्त	-10.8038
र्वा	-10.8043
गन्तु	-10.8044
te	-10.8046
मन्व	-10.8047
▁अथर्ववेदस्य	-10.8048
सम्भव	-10.8048
▁बड	-10.8049
विषाद	-10.8052
▁शीतलनाथ	-10.8053
▁सेवक	-10.8053
▁शाप	-10.8054
▁पर्यटनस्थल	-10.8056
▁शारदा	-10.8056
▁नवरात्र	-10.8057
िष्यन्ति	-10.8057
तेषां	-10.8061
▁चतु	-10.8061
▁तिष्ठ	-10.8062
योमिङ्	-10.8064
▁नेब्रास्	-10.8064
▁मिशिगन	-10.8064
▁बुद्धस्य	-10.8064
▁1928	-10.8065
▁सर्वम्	-10.8069
▁गृहस्य	-10.807
▁समुचित	-10.8071
▁यूटा	-10.8071
सर्प	-10.8071
▁दोषः	-10.8072
ne	-10.8074
▁अमेरिकादेश	-10.8074
घटन	-10.8074
▁डेला	-10.8075
jə	-10.8075
▁रोम	-10.8076
ग्रस्त	-10.8078
ापेक्ष	-10.808
▁साकं	-10.8083
▁ज्योतिष	-10.8084
▁गौरवं	-10.8086
▁क्री	-10.8088
समाजस्य	-10.809
मानाः	-10.809
▁ईशवीये	-10.8093
▁मित्राणि	-10.8093
▁अयोग्य	-10.8094
and	-10.8098
पत्तन	-10.8098
दयाल	-10.8101
▁कर्तव्यः	-10.8102
परिवर्तनं	-10.8102
▁चरित्र	-10.8104
▁इन्डियाना	-10.8104
▁रत्नागिरि	-10.8104
▁on	-10.8105
▁जलप्रपातः	-10.8106
▁तदारभ्य	-10.8106
▁नेली	-10.8109
स्टे	-10.8112
पर्वताः	-10.8114
▁महान्त	-10.8115
▁खर	-10.8116
▁गौ	-10.8116
▁तत्काल	-10.8117
▁गायत्री	-10.8118
डहो	-10.812
▁उक्तवती	-10.8121
भेदाः	-10.8121
मोक्ष	-10.8122
सरदार	-10.8123
▁संस्थापकः	-10.8126
शिष्ट	-10.8126
ानाञ्च	-10.8129
कमल	-10.8131
▁तीर	-10.8132
मतिः	-10.8136
णस्य	-10.8139
▁संस्कृति	-10.8141
▁चन्द्रगुप्त	-10.8142
3.	-10.8143
संस्थानस्य	-10.8143
चित	-10.8144
▁श्रीलङ्का	-10.8144
दिया	-10.8145
पराजय	-10.8145
▁आङ्ल	-10.8145
▁अलाबामा	-10.8145
महल्	-10.8148
▁स्नानं	-10.8148
▁उपस्थापित	-10.8149
बाग्	-10.8151
कृतः	-10.8152
▁सेन	-10.8153
▁प्रमाणेन	-10.8153
▁उपन्यास	-10.8155
▁पन्ना	-10.8155
▁यावद	-10.8157
▁अन्व	-10.8158
▁स्प	-10.8158
▁टेन	-10.8162
▁कति	-10.8163
सिद्धिः	-10.8169
ावरण	-10.8172
▁प्रस्तावः	-10.8176
▁विद्य	-10.8178
▁जीवनम्	-10.8182
▁एषु	-10.8183
▁सामान्यतया	-10.8186
times	-10.8187
▁केन्दुझर	-10.8187
▁भाटकयानानि	-10.8187
वियोग	-10.8187
बध्द	-10.8189
▁दातुम्	-10.8189
वार्	-10.8194
▁1857	-10.8194
नवाब	-10.8199
▁निर्वाचनक्षेत्र	-10.8201
▁धा	-10.8202
▁संलग्न	-10.8204
चरितम्	-10.8205
प्रतिपादक	-10.8205
▁जुलै	-10.8208
▁प्रवेशः	-10.8209
सम्पत्	-10.8209
▁कर्तृत्व	-10.8213
वराह	-10.8218
उपमण्डले	-10.8221
▁मतं	-10.8222
ाभिप्राय	-10.8224
श्वास	-10.8224
▁सम्यग्	-10.8226
▁पदेन	-10.8228
ावृत	-10.8228
▁स्थापयित्वा	-10.8228
कुर्वन्	-10.8234
ारोप	-10.8234
▁वयः	-10.8234
चिद	-10.8235
▁जलप्रपाताः	-10.8236
राजवंशस्य	-10.8236
▁दर्शनस्य	-10.8237
▁कार्यरता	-10.8237
▁इच्छामि	-10.8242
काव्यं	-10.8242
▁पठति	-10.8242
▁कुपित	-10.8245
▁निर्धार	-10.8245
▁दिवस	-10.8246
गुजरातराज्य	-10.8247
नट	-10.8248
राव्	-10.8249
दिव	-10.8249
ve	-10.8252
प्राप्तये	-10.8252
▁पेरेन	-10.8253
▁मध्यप्रदेशस्य	-10.8254
राजाः	-10.8256
▁उत्तरभाग	-10.8257
पदार्थानां	-10.8258
▁जान	-10.8258
महोत्सवः	-10.8259
▁यूना	-10.8265
▁गिजुभाई	-10.8269
थ्य	-10.827
कलायाः	-10.8271
▁अवसरे	-10.8271
▁सर्वभूत	-10.8272
▁धार्मिकपरिवार	-10.8272
▁2004	-10.8273
व्र	-10.8273
िकं	-10.8273
▁भजते	-10.8274
▁वहन्ति	-10.8275
नानि	-10.8277
ाभिः	-10.8279
▁उद्भवति	-10.8284
▁वत्स	-10.8285
▁पुनश्च	-10.8286
सर्वेक्षण	-10.8287
▁पक्षे	-10.829
ेषां	-10.8292
▁वानर	-10.8292
▁पितामह	-10.8292
द्वारं	-10.8294
▁सावरकर	-10.8295
कुशल	-10.8295
शन्	-10.8295
ब्राह्मणाः	-10.8296
▁कुन्द	-10.8298
▁प्रयोगो	-10.8298
▁युद्धाय	-10.8298
▁प्रत्यय	-10.83
▁12.	-10.8302
▁उष्णकटिबन्धीय	-10.8302
▁स्वगृह	-10.8302
▁सङ्कट	-10.8303
िभ्यः	-10.8304
▁73	-10.8304
▁पदार्थाः	-10.8304
ंट	-10.8306
पॊन्नानी	-10.8311
▁1992	-10.8313
▁आरब्ध	-10.8313
▁1936	-10.8313
▁सन्तुष्टः	-10.8313
▁रेलयान	-10.8313
▁10.	-10.8314
स्पर्धा	-10.8315
▁मदीय	-10.8317
कृतयः	-10.8318
वृक्षाः	-10.8319
▁1919	-10.832
गृहीत	-10.8321
▁डी	-10.8322
मर्	-10.8324
▁निर्मल	-10.8324
धर्मा	-10.833
▁आवर्ष	-10.833
▁मुखे	-10.833
▁स्वामि	-10.8331
▁वास्तुकला	-10.8332
दाम	-10.8334
▁फारसी	-10.8336
जाति	-10.8336
ड़	-10.8336
▁अङ्गीकृत	-10.8337
श्चेत्	-10.8338
▁वर्णयति	-10.8338
श्चा	-10.8342
▁परिसरे	-10.8345
▁ख्याता	-10.8345
मीमांस	-10.8345
शिर	-10.8346
भूषित	-10.8347
पत्तनस्य	-10.8347
4.	-10.8351
मीटर	-10.8353
▁प्रसिद्धमस्ति	-10.8353
▁वोखा	-10.8354
▁वृत्तान्त	-10.8354
▁सुरक्षित	-10.8355
▁निबद्ध	-10.8356
▁काफी	-10.8357
▁स्वच्छ	-10.8358
▁लिखित्वा	-10.8358
▁गण्यते	-10.8363
मेष	-10.8364
ैष	-10.8366
▁साधकः	-10.8369
णाय	-10.837
वृत्तेः	-10.837
▁पलाय	-10.8377
ोऽस्मि	-10.8377
ग्नि	-10.8383
▁प्रकृत्या	-10.8385
▁संस्कृते	-10.8388
▁अध्याये	-10.839
▁जलबन्धस्य	-10.8391
स्वरूपे	-10.8392
▁गतिः	-10.8394
▁राष्ट्रपतिभवन	-10.8395
▁असमर्थः	-10.8395
पितृ	-10.8396
▁1957	-10.8397
चिक	-10.8397
▁दुष्यन्त	-10.8398
▁प्रायश्चित्त	-10.8398
शीर्ष	-10.8399
भूताः	-10.84
▁मीटर्मित	-10.8403
ol	-10.8405
▁वैशिष्ट्य	-10.8406
▁जागरित	-10.8407
सहाय	-10.8414
▁विधानसभाक्षेत्र	-10.8415
सम्बन्धिन	-10.8419
▁मर	-10.842
रुह्य	-10.8421
विषयेषु	-10.8421
▁p	-10.8423
▁प्रेर	-10.8423
▁आचरणं	-10.8424
भु	-10.8425
पञ्चाशत्	-10.8427
▁400	-10.8433
त्त्व	-10.8434
▁शिरसि	-10.8435
▁दूरदर्शन	-10.8436
▁महानगर	-10.8437
▁राज्ञां	-10.8437
▁प्रयुज्यते	-10.8439
▁हेम्	-10.8442
▁कुर्वत	-10.8443
▁धनम्	-10.8443
▁चलचित्र	-10.8444
▁दत्तम्	-10.8446
▁तात्पर्य	-10.8446
▁300	-10.8448
▁एकां	-10.8449
गमनं	-10.845
▁मूल्य	-10.8451
चिद्	-10.8457
ज्योति	-10.8459
▁दास्य	-10.8459
प्रत्यक्ष	-10.8461
पूरण	-10.8463
अर	-10.8464
▁पश्यन्ति	-10.8465
स्नान	-10.8466
▁71	-10.8467
▁उत्तरप्रदेशस्य	-10.847
दैव	-10.8472
▁रामायणस्य	-10.8473
▁गृहस्थ	-10.8476
▁85	-10.8478
प्रथम	-10.8478
चय	-10.8479
▁निधाय	-10.848
दिनाङ्क	-10.848
दुर्गस्य	-10.8483
षित	-10.8483
▁प्रणेता	-10.8483
▁शङ्का	-10.8484
रस्ति	-10.8485
▁चलच्चित्रस्य	-10.8485
▁प्रतिबन्ध	-10.8486
▁जर्मनी	-10.8488
▁अकबर	-10.8489
▁साधयितु	-10.849
▁प्राप्तं	-10.8491
▁शैल्या	-10.8491
▁समुद्भूत	-10.8492
▁कटु	-10.8493
ार्क	-10.8493
▁विभाव	-10.8494
▁खण्डवा	-10.8495
▁विस्तीर्ण	-10.8496
▁विचार्य	-10.8499
▁सन्देह	-10.8516
▁धूमशकट	-10.8516
▁मन्त्री	-10.8519
▁स्कन्ध	-10.8521
▁विन्ध्य	-10.8522
▁परिवर्तित	-10.8522
▁आविष्कार	-10.8522
तिलक	-10.8523
▁मुखं	-10.8523
ऋषि	-10.8525
▁शान्तं	-10.8526
जलं	-10.8526
प्रशंस	-10.8527
त्तम	-10.8527
▁गोल	-10.8529
विधानसभाक्षेत्रं	-10.853
▁दशमे	-10.8532
▁कृ	-10.8534
धिकार	-10.8534
मापक	-10.8537
मात्रात्मक	-10.8537
▁ग्रन्थालय	-10.8538
ोपनिषद	-10.8541
▁पराजित	-10.8544
विस्तर	-10.8545
चन्द्रिका	-10.8546
▁विदिशा	-10.8547
▁फा	-10.8548
ाख्यः	-10.8549
▁यौवन	-10.8553
शोक	-10.8556
▁चतुर्धा	-10.8561
▁पठितुं	-10.8562
▁मौन	-10.8564
▁सङ्घटनस्य	-10.8564
▁मोकोक	-10.8565
सरोवरः	-10.8565
▁यं	-10.8565
▁1990	-10.8567
▁आरब्धवन्तः	-10.8567
▁विभागः	-10.8568
क्रीड	-10.8573
भक्ष	-10.8573
▁पार्श्वनाथस्य	-10.8576
▁खानिज	-10.8577
▁गृहम्	-10.8581
▁प्राणी	-10.8582
▁रति	-10.8583
▁अनिल	-10.8585
शिलालेख	-10.8589
▁कावेरी	-10.8589
दीपिका	-10.859
▁अनयोः	-10.859
कृतं	-10.859
▁जवाहरलाल	-10.859
▁a	-10.8592
ष्म	-10.8593
दूत	-10.8593
ऴ	-10.8598
▁अनुभवति	-10.8599
पवित्र	-10.8603
ांशः	-10.8603
▁वेदार्थ	-10.8604
▁सव	-10.8605
▁हरिश्चन्द्र	-10.8608
▁तेजपुर	-10.8608
मार्गदर्शक	-10.8609
▁1997	-10.861
▁जनवरीमास	-10.8612
▁निर्णीत	-10.8612
▁13.	-10.8614
▁काऽपि	-10.8615
▁विस्मर	-10.8616
▁भासते	-10.8618
▁अद	-10.8619
ाधिक्य	-10.8621
यात्र	-10.8623
▁इदानीमप	-10.8623
▁अनयत्	-10.8623
ांसि	-10.8624
्नि	-10.8628
तिरुपति	-10.863
सङ्ग्रहण	-10.8631
वृत्तिं	-10.8633
▁परिषदः	-10.8636
▁उष्णता	-10.8638
▁पाण्डु	-10.864
शीत	-10.864
तोऽपि	-10.8641
▁प्रतीक्षा	-10.8651
ादिना	-10.8651
▁रूल्	-10.8652
▁सम्प्राप्य	-10.8652
▁1962	-10.8652
कता	-10.8652
▁चन्दन	-10.8653
तथा	-10.8654
▁भारतसर्वकारः	-10.8655
निर्माणे	-10.8655
▁विद्धि	-10.8658
▁मोहनदास	-10.8658
शाल	-10.8659
▁विशिष्य	-10.866
क्रीडाङ्गण	-10.8665
▁शास्त्री	-10.8665
▁शक्यः	-10.867
▁निहित	-10.8672
▁प्रजातन्त्र	-10.8673
वड	-10.8673
छन्द	-10.8675
▁देवस्य	-10.8676
घट	-10.8677
ौषध	-10.8678
ख्याति	-10.8679
पृच्छ	-10.8683
▁शिरो	-10.8683
▁आरण्यक	-10.8684
स्थानात्	-10.8684
▁सम्पादित	-10.8689
भक्ष्य	-10.8689
बहु	-10.869
▁चाणक्य	-10.8694
निदेशक	-10.8695
पुन	-10.8696
▁बीदर	-10.8696
समुच्चय	-10.8697
ळु	-10.8698
▁अंशः	-10.8698
▁षोडशे	-10.8699
▁भारतसर्वकारेण	-10.8699
▁प्राग्	-10.87
ास्त	-10.8702
समाधि	-10.8702
फ़्	-10.8702
पदानां	-10.8702
▁विद्	-10.8704
▁घात	-10.8704
▁अक्ष	-10.8704
▁विदुषां	-10.8706
ाया	-10.8707
तदा	-10.8709
्यमाना	-10.8713
▁ज्ञातं	-10.8713
▁भिन्नः	-10.8714
05	-10.8715
▁उमा	-10.8716
ैन्	-10.8717
षष्टि	-10.872
▁निवारणं	-10.8721
▁धनुर्	-10.8722
जग	-10.8724
▁प्रभाविताः	-10.8726
▁मृतः	-10.8726
तद्	-10.8729
बुद्धिः	-10.873
▁ईश	-10.8734
रागः	-10.8736
▁हस्तिनापुर	-10.8738
▁आधिकारिक	-10.8738
आदि	-10.8738
▁पश्चिमबङ्गाल	-10.8738
▁कानपुर	-10.8738
▁सुखदुःख	-10.874
अथ	-10.8742
रूपे	-10.8742
▁सङ्गणक	-10.8742
कारणेन	-10.8743
▁विघ्न	-10.8745
▁तिब्बत	-10.8745
▁प्रामाणिक	-10.8745
ञ्चकार	-10.8746
ार्ध	-10.8747
▁दर्शयति	-10.8748
▁परे	-10.8748
▁प्रवृत्तिः	-10.8749
▁आङ्ग्लेय	-10.875
▁ताल	-10.8756
▁वर्षपर्यन्तं	-10.8756
▁सहायक	-10.8757
ोद्यानम्	-10.8764
जनेभ्यः	-10.8766
▁चलन	-10.8766
शताब्द्या	-10.8772
▁चक्रवर्ती	-10.8772
खण्डः	-10.8772
▁गम्भीर	-10.8773
प्रे	-10.8773
निर्धारण	-10.8773
▁प्राय	-10.8775
त्थान	-10.8776
स्थापक	-10.8778
▁प्रभावती	-10.878
अम्ब	-10.878
▁रासायनिक	-10.8781
▁सांसारिक	-10.8781
▁मतानि	-10.8781
▁कोट	-10.8783
दिनम्	-10.8785
▁बहुत्र	-10.8785
गञ्ज	-10.8786
क्षमता	-10.8787
▁भ्राता	-10.8787
▁केन्द्रे	-10.8788
वार्ता	-10.879
▁भारतात्	-10.8793
▁मुख्यतया	-10.8795
ध्यान	-10.8797
▁अर्थाद्	-10.8797
▁मरणानन्तर	-10.8799
▁is	-10.88
▁सम्बद्धाः	-10.8802
▁अप्य	-10.8803
▁उपनिषद्	-10.8803
▁विवृत	-10.8805
कालं	-10.8809
▁सम्पूर्णतया	-10.8812
विक्रम	-10.8812
▁अत्यन्तम्	-10.8813
▁वल्लभ	-10.8816
▁प्रतिनिधि	-10.8817
▁मतानुसारं	-10.8817
▁अगस्त्य	-10.8819
क्षय	-10.8821
ाभ्यन्तरे	-10.8822
ादर्श	-10.8825
प्रणाल्या	-10.8825
▁मलप्पु	-10.8825
▁1999	-10.8827
▁आत्मनो	-10.8827
▁कर्तव्यं	-10.8831
▁श्रेयः	-10.8832
रतः	-10.8832
▁पश्यन्तु	-10.8832
▁भगत	-10.8833
पिपास	-10.8834
रित	-10.8834
गतिः	-10.8841
▁पश्यन्	-10.8842
nd	-10.8843
▁विनोद	-10.8844
▁विज्ञानस्य	-10.8844
▁लीन	-10.8845
ावह	-10.8846
ित्य	-10.8847
▁प्रभावित	-10.8847
त्यर्थ	-10.8849
▁वल	-10.8852
▁अवकाशः	-10.8854
▁परिहार	-10.8856
▁बहुकाल	-10.8856
▁गुजर	-10.8859
▁भवितव्यम्	-10.8861
▁पुनर्निर्माण	-10.8862
▁क्या	-10.8863
मेय	-10.8864
सौकर्य	-10.8865
▁असमर्थ	-10.8865
▁हंसः	-10.8867
वाणिज्य	-10.8869
▁म्यान्मार	-10.8869
▁शौर्य	-10.8869
▁समर्प्य	-10.8869
▁कुटीर	-10.887
ॉन्	-10.8871
▁मोर	-10.8872
नवम्बर	-10.8874
54	-10.8875
हार्	-10.8876
▁अकृत्वा	-10.8877
स्वतन्त्रतायै	-10.8878
मिश्रित	-10.8879
▁स्थापय	-10.8886
▁शिवराम	-10.8886
▁विधवा	-10.889
▁उन्नतम्	-10.8892
▁पूर्वोक्त	-10.8893
▁गान्धिमहोदय	-10.8894
प्रतिष्ठा	-10.8895
दानम्	-10.8895
▁बस्	-10.8896
ारभ्य	-10.8896
युतं	-10.8896
▁गानं	-10.8896
स्थितौ	-10.8897
▁प्रकाशस्य	-10.8897
ेभ्य	-10.8901
वस्तुसङ्ग्रहालयः	-10.8901
▁कुसुम	-10.8902
▁शोभा	-10.8902
▁लुण्ठ	-10.8904
▁आश्रित	-10.8906
▁महाद्वीप	-10.891
▁अवधान	-10.8912
मज	-10.8913
▁आश्चर्यचकित	-10.8913
द्वन्द्व	-10.8913
▁नर्मदानदी	-10.8915
यानस्य	-10.8916
दाह	-10.8917
▁राजशेखर	-10.8917
पाठशाला	-10.8918
वृत्तान्त	-10.8919
▁तिलकमहोदय	-10.8919
रुद्दीन	-10.8922
▁फ्रान्स्	-10.8924
▁अतएव	-10.8926
कृषि	-10.8927
▁भाग्य	-10.8929
▁लङ्का	-10.893
ञ्जि	-10.893
▁ख्याति	-10.8931
7%	-10.8934
▁वेल	-10.8934
▁होम्	-10.8935
▁शोकः	-10.8936
वत्याः	-10.8937
उपासनागृह	-10.8939
▁लक्षं	-10.8941
▁संसारस्य	-10.8944
▁रवीन्द्रनाथ	-10.8944
▁पीठ	-10.8947
▁राष्ट्रस्य	-10.8952
▁देवा	-10.8952
▁हल	-10.8955
▁स्वयंवर	-10.8956
▁उपयुज्यन्ते	-10.8959
स्वीकरण	-10.896
▁कामा	-10.8961
स्तम्भः	-10.8962
▁तार	-10.8965
▁अस्मै	-10.8966
च्युत	-10.8966
▁दर्	-10.8972
परीक्षाया	-10.8975
ीकरणस्य	-10.8976
नक्षत्रम्	-10.8977
गान्धी	-10.8977
▁प्राकृत	-10.8979
▁सेनाया	-10.898
हान	-10.8982
नुमान	-10.8983
स्वार्थ	-10.8983
पञ्चाशत्तम	-10.8983
▁अभय	-10.8986
to	-10.8986
ानेक	-10.8987
▁ज्योतिर्लिङ्ग	-10.899
▁प्रतीकः	-10.8991
un	-10.8994
▁कविना	-10.8995
▁भग	-10.8996
साहस	-10.9
▁तुला	-10.9002
▁क्षेत्राणि	-10.9002
कोर	-10.9002
▁1972	-10.9002
▁प्रामुख्य	-10.9004
▁चिन्तयन्	-10.9006
▁प्रदर्श्य	-10.9006
माधव	-10.9008
▁सस्यानां	-10.9008
सूत्रम्	-10.9011
▁शिवराज	-10.9012
▁प्रशस्तिः	-10.9014
▁औन्नत्ये	-10.9017
▁करुण	-10.9018
▁शे	-10.902
▁आक्षेप	-10.9021
भागवत	-10.9021
▁आगन्तु	-10.9021
ात्मनः	-10.9024
▁जलपात	-10.9024
▁गुड	-10.9031
मूर्	-10.9032
▁शूद्र	-10.9035
पूर्वमेव	-10.9035
ोऽत्र	-10.9036
लौकिक	-10.9036
▁साम्राज्यस्य	-10.9037
▁वाच्य	-10.9038
साधनम्	-10.904
लेखा	-10.9041
▁शिरः	-10.9045
▁लिपिः	-10.9045
▁सुन्दरम्	-10.9045
बाग	-10.9045
▁नद्या	-10.9046
▁बह्व	-10.9047
▁शिशोः	-10.9047
▁परमाणु	-10.9048
▁विपुल	-10.9048
नेता	-10.9048
▁मेङ्गलोर	-10.9048
▁प्राची	-10.9049
▁फ़	-10.9049
सचिव	-10.9052
▁भग्न	-10.9052
▁स्मरति	-10.9053
▁सर्वश्रेष्ठ	-10.9054
▁अन्तःकरण	-10.9055
छन्दस	-10.9056
▁ज्योति	-10.9057
रास	-10.906
प्रशस्ति	-10.9061
तव्यम्	-10.9061
▁उपयुज्य	-10.9064
▁प्रार्थ	-10.9065
सिध्दान्त	-10.9065
ोत्साह	-10.9067
सन्निवेश	-10.9068
▁प्रकृत	-10.9069
▁उपाध्याय	-10.9069
वेल	-10.9072
▁विदेशीय	-10.9076
वृक्षाणां	-10.908
▁एच्	-10.9081
▁आश्रमः	-10.9082
▁ताव	-10.9084
यताम्	-10.9087
▁शताब्द्या	-10.9088
▁समाधानं	-10.9091
▁1952	-10.9094
स्तद	-10.9094
▁विकासशील	-10.9095
▁1949	-10.9095
▁अखिल	-10.9096
▁वेदव्यास	-10.9097
नियन्त्रण	-10.9101
▁जातानि	-10.9101
सीमाया	-10.9101
ोऽयम	-10.9103
▁व्यर्थ	-10.9104
▁पवित्रं	-10.9106
▁विमलनाथ	-10.9107
▁नाम्नि	-10.9107
▁इष्टवान्	-10.9111
पक्षिण	-10.9112
▁परिवर्त्य	-10.9113
▁चिन्तय	-10.9117
कर्त्तु	-10.9121
▁आरोहण	-10.9123
▁चमत्कार	-10.9123
▁खण्डे	-10.9127
▁सुभद्रा	-10.9128
▁स्वभावः	-10.9128
▁ज्येष्ठः	-10.913
वधू	-10.913
▁विवरणम्	-10.9132
▁शीतकाल	-10.9132
▁संसारे	-10.9134
सिद्धान्तस्य	-10.9134
लॉङ्गलेङ्ग	-10.9138
▁जुन्हेबोटो	-10.9138
▁देवेगौड	-10.9138
▁गोदावरी	-10.9138
▁लीग्	-10.9138
▁अधिपतिः	-10.9139
▁उदात्त	-10.914
ce	-10.9141
सत्याग्रह	-10.9141
सोम	-10.9141
जातीयाः	-10.9143
və	-10.9144
▁अङ्गीकृतवान्	-10.9144
▁निशा	-10.9145
बाध	-10.9147
निरीक्ष	-10.915
▁रामायणे	-10.9152
▁दुष्	-10.9152
घ्न	-10.9153
▁हरिद्वार	-10.9154
काली	-10.9159
▁उपस्थितः	-10.9161
▁इतिहासस्य	-10.9163
▁अत्रस्था	-10.9165
भाग्य	-10.9165
▁महत्वपूर्णं	-10.9168
pa	-10.9169
▁जिन	-10.9172
▁भवन्त	-10.9181
भावनायाः	-10.9181
ीकुर्वन्ति	-10.9182
▁दीपक	-10.9183
▁स्थातु	-10.9184
▁1954	-10.9184
▁करिष्यामि	-10.9184
▁दो	-10.9186
▁सिध्द	-10.9187
व्यक्त	-10.9188
ण्या	-10.919
अन्ताराष्ट्रिय	-10.9195
▁कृतवन्तौ	-10.9195
▁76	-10.9196
▁किलोमीटरमित	-10.92
▁असम्भव	-10.9203
▁ऎ	-10.9205
▁संस्थान	-10.9205
र्क	-10.9207
▁ब्रह्मपुत्रा	-10.9207
▁वह्नि	-10.9212
▁अन्वेषण	-10.9215
ासीद	-10.9219
मार्गस्य	-10.9219
▁अङ्गार	-10.9219
कथायाः	-10.922
▁मुख्यं	-10.9222
बल्	-10.9222
एम्	-10.9224
प्रतीति	-10.9224
सम्पादन	-10.9225
▁रेल	-10.9225
▁अमिताभ	-10.9229
▁कौमारावस्थाया	-10.9229
▁भ्रातृ	-10.9229
▁करिष्यामः	-10.9229
▁कथनम्	-10.9229
▁16.	-10.9235
भाषाणां	-10.9235
भूभाग	-10.9237
▁पृथग्	-10.9238
▁मुनिः	-10.9238
▁तावद	-10.924
योनि	-10.9241
▁नाटकानि	-10.9241
▁निश्चितम्	-10.9242
▁यशः	-10.9245
▁ज्ञातु	-10.9245
▁सोढुं	-10.9248
ाणी	-10.9249
हिन्दी	-10.9251
▁आयोजनम्	-10.9254
▁ईशान्य	-10.9256
काणां	-10.9257
▁भीमसेन	-10.9258
▁पान	-10.9259
▁बन	-10.9263
ायते	-10.9266
▁मूर्तयः	-10.9267
कृतौ	-10.9269
ाभिषेक	-10.9273
चिकित्सालय	-10.9273
पर्वतस्य	-10.9273
▁अबोधयत्	-10.9275
▁शैलेशीपद	-10.9275
पङ्क	-10.9276
▁1963	-10.9276
▁प्रतिपादयति	-10.9278
ध्वजस्य	-10.9278
संसाधन	-10.9279
▁जप	-10.9281
▁कित्तूरुराज्य	-10.9282
पै	-10.9283
सर्वस्व	-10.9284
▁धार्मिकस्थलानि	-10.9285
▁विषयाणां	-10.9285
▁सुखेन	-10.9285
▁आङ्ग्लाधिकारिण	-10.9287
अक्तूबर	-10.9289
▁इत्येताभ्या	-10.9292
▁नागरिकाः	-10.9292
▁अविद्या	-10.9293
▁43	-10.9293
ात्मना	-10.9297
▁तुल्य	-10.9298
बिन्द	-10.9299
राष्ट्रियोद्यान	-10.9299
▁सेनापतिः	-10.9301
नुपात	-10.9301
▁रवि	-10.9302
प्रकाशन	-10.9303
▁वाच	-10.9305
ोत्प	-10.9306
इल	-10.9307
▁कारागृह	-10.9308
▁रचनाकाल	-10.9308
मुन्	-10.9312
▁छन्दो	-10.9312
▁शान्तः	-10.9313
▁विद्वत्	-10.9314
▁वेदा	-10.9318
▁प्रगति	-10.9319
ka	-10.932
▁k	-10.9321
▁साम्प्रत	-10.9321
▁व्रण	-10.9322
पथे	-10.9322
▁शैक्षणिकसंस्थान	-10.9322
रत्नाकर	-10.9323
मुहूर्त	-10.9323
एल्	-10.9327
▁विस्तृतं	-10.9329
ज़फ़	-10.9329
▁वैज्ञानिकाः	-10.933
ास्त्र	-10.9331
क्रीडायां	-10.9331
▁मिलित	-10.9332
▁शिक्ष	-10.9333
▁गुणानां	-10.9334
कालादेव	-10.9335
▁360	-10.9336
संस्थानां	-10.9336
▁विषम	-10.9338
स्थाप्य	-10.9339
▁आसन	-10.934
▁लण्डन	-10.9343
कर्मणा	-10.9343
ट्टि	-10.9343
ाध्यक्षः	-10.9343
▁निवेदन	-10.9343
ul	-10.9357
सागरे	-10.9358
▁लज्ज	-10.9361
▁तू	-10.9362
▁विद्यालयस्य	-10.9362
▁निपुण	-10.9363
▁एको	-10.9365
▁66	-10.9365
wiki	-10.9367
▁हज़रत	-10.9367
▁सात्त्विक	-10.9367
▁दुर्लभ	-10.9368
▁लय	-10.9368
सर्वकार	-10.937
शक्तिं	-10.9371
▁मिश्रण	-10.9372
▁व्युत्पत्ति	-10.9374
▁त्रयो	-10.9375
योध	-10.9375
ार्थस्य	-10.9376
वाडी	-10.9381
▁विकासाय	-10.9382
▁न्य	-10.9382
▁पितृव्य	-10.9383
मुस्लिम	-10.9386
वदन	-10.9386
▁भारतीया	-10.9387
▁गणस्य	-10.9388
शास्त्री	-10.9389
टिक्	-10.9389
▁कीट	-10.939
▁किल	-10.9391
सम्पत्ति	-10.9392
छात्र	-10.9393
▁प्रार्थनां	-10.9395
सङ्ग्रहः	-10.9396
▁निन्दा	-10.9398
▁अतिथि	-10.94
▁गताः	-10.9406
▁इस्	-10.9406
▁प्रभावेण	-10.9407
▁जीवन्ति	-10.9409
▁आत्मना	-10.9409
▁स्वतन्त्रः	-10.941
बिन्दु	-10.941
▁अग	-10.9411
ङ्गो	-10.9411
▁साहित्यं	-10.9411
▁सर्वासा	-10.9411
फो	-10.9412
▁;	-10.9413
▁बहादुरशाह	-10.9413
▁महद्योगदान	-10.9413
▁1932	-10.9415
▁1945	-10.9416
▁2009	-10.9417
▁नष्टा	-10.9418
▁74	-10.9419
नागर	-10.942
दरी	-10.9423
▁दत्तवन्तः	-10.9424
▁आशयः	-10.9424
▁पक्षिणः	-10.9425
▁उषा	-10.9426
▁नवदश	-10.9429
संयोग	-10.943
▁नामिका	-10.9431
यन्ते	-10.9432
▁तादृशी	-10.9438
▁तेजः	-10.9441
▁कोर	-10.9444
दासस्य	-10.9444
मिते	-10.9445
▁आदिवासि	-10.9446
तप्त	-10.9446
▁विश्रान्ति	-10.9447
द्वीपे	-10.9447
स्माक	-10.9447
▁सत्यां	-10.9447
शस्त्र	-10.9449
▁परिवारस्य	-10.9449
▁परिवर्तिता	-10.9452
गिर	-10.9452
भूत्	-10.9454
▁एतन्	-10.9454
ाभरण	-10.9455
▁विद्यमानाना	-10.9455
स्थितिं	-10.9457
ब्रि	-10.9458
▁मल्लिनाथ	-10.946
स्तत्	-10.9461
प्पु	-10.9464
▁प्रोत्साह	-10.9466
▁गर्त	-10.9466
▁निर्मितवन्तः	-10.9467
▁योग्यं	-10.9469
▁विस्तृतम्	-10.9474
संज्ञक	-10.9476
वत्सर	-10.9476
one	-10.9476
▁खो	-10.9476
▁संस्थाः	-10.9479
विस्तृत	-10.9482
▁विदित	-10.9485
▁ऋषिः	-10.9485
▁कर्तु	-10.9486
▁अन्येभ्यः	-10.9488
▁घटक	-10.9488
▁बिन्दु	-10.9489
चेन्न	-10.949
तमवर्षे	-10.9491
▁जननी	-10.9492
▁कू	-10.9498
नीया	-10.95
▁शताधिक	-10.9503
si	-10.9503
▁जायमाना	-10.9504
▁उच्छ	-10.9505
स्टर्	-10.9505
▁हॉकी	-10.9507
गवर्नर	-10.9507
▁द्राक्षा	-10.9507
शतं	-10.9508
▁स्टेट्	-10.9509
विभजन	-10.951
मिम	-10.9512
▁तुलना	-10.9513
▁लिखितानि	-10.9517
भ्रम	-10.9518
▁हिन्दूनां	-10.9519
▁गोपुर	-10.952
मध्व	-10.9522
▁ख्यातिः	-10.9522
निश्चय	-10.9523
▁मतभेद	-10.9523
▁दक्षिणभाग	-10.9528
त्रयम्	-10.9531
▁ज्ञातम्	-10.9534
ललित	-10.9536
▁गर्भगृह	-10.9537
▁आधारः	-10.9538
शाखायाः	-10.9538
ən	-10.954
स्थलानि	-10.9541
धरण	-10.9545
▁सदृश	-10.9545
▁यच्छन्	-10.9547
क्षेत्राणां	-10.9547
▁आधिपत्यं	-10.9548
दस्ति	-10.955
▁नोबेल्	-10.9552
द्रां	-10.9553
श्लेष	-10.9553
तृप्त	-10.9554
▁मदनमोहन	-10.9555
रामानुज	-10.9555
हम	-10.9556
▁उत्पाद्यते	-10.9556
▁पराजिताः	-10.9556
▁ब्राह्मी	-10.9558
ीकृता	-10.9561
▁सूक्ते	-10.9562
▁काय	-10.9563
▁तट	-10.9566
प्रतिष्ठाप	-10.9567
▁संरक्षित	-10.957
▁सर्वस्य	-10.9572
गत्या	-10.9574
▁विवेकानन्द	-10.9574
कण्ड	-10.9575
mp	-10.9578
ायुध	-10.9578
ागमः	-10.958
संस्करण	-10.958
करणम्	-10.9584
▁मरीच	-10.9584
द्भिः	-10.9587
▁प्रतियोगिता	-10.9591
pr	-10.9592
▁युगे	-10.9593
▁और	-10.9594
▁उद्योगाः	-10.9599
भूम	-10.9602
▁कन्याकुमारी	-10.9602
▁तमिऴ्नाडुराज्य	-10.9603
▁महाराष्ट्रे	-10.9605
ल्ड्	-10.9607
न्थ	-10.9607
▁कॉ	-10.961
वर्णित	-10.9611
▁अनुभूतवान्	-10.9612
कुले	-10.9615
▁वार्षिक	-10.9616
भित्ति	-10.9616
यामेव	-10.9619
विषयाः	-10.9619
अभि	-10.9621
▁समुद	-10.9628
फरवरी	-10.963
▁यन्त्रागार	-10.9631
▁खेल	-10.9635
▁बुद्धेः	-10.9636
▁भारवि	-10.9636
▁रुग्ण	-10.9636
क्षत्रियाः	-10.9637
▁एतदेव	-10.9638
▁रचिता	-10.9639
प्रभ	-10.964
शृङ्ग	-10.9641
ग्रन्था	-10.9642
▁पूर्वजन्मन	-10.9642
ावल्या	-10.9643
दिग्	-10.9645
क्रान्ति	-10.9645
शीला	-10.9646
ंग्	-10.9647
तू	-10.9647
ध्येय	-10.9647
ीभवति	-10.9649
▁हिमाचलप्रदेश	-10.9649
मप	-10.965
▁ब्राह्मणस्य	-10.965
▁बृह	-10.965
▁अग्ने	-10.965
पात्रे	-10.9652
▁सुरक्षा	-10.9652
ोपकरण	-10.9654
▁अवगत	-10.9654
▁f	-10.9654
सिद्धान्तः	-10.9658
कत	-10.9659
▁अष्टा	-10.9662
ाराधन	-10.9664
▁गतवती	-10.9665
▁महर्षिः	-10.9667
चम्पू	-10.9669
विरुद्ध	-10.9669
▁रसायन	-10.967
▁स्थलमस्ति	-10.9671
▁डिसेम्बर्	-10.9674
▁संसदि	-10.9677
▁प्रभाविता	-10.968
लिपि	-10.968
▁दृष्टान्त	-10.9683
▁सुदृढ	-10.9684
▁साहित्यिक	-10.9684
लेश	-10.9685
ारोहण	-10.9685
▁प्रयाग	-10.9687
▁अनुवर्त	-10.9687
▁पित्रा	-10.9688
संयुक्त	-10.9691
▁लेप	-10.9691
▁समनन्तर	-10.9697
▁दरीदृश्यते	-10.9697
▁बेळगावी	-10.9697
▁आंग्ल	-10.9698
▁पटनायक	-10.9698
्रमुखसस्योत्पादन	-10.9698
दक्षिणकन्नडमण्डल	-10.9699
▁तापमान	-10.97
पक्षतः	-10.9705
हिंसा	-10.9707
▁विलम्ब	-10.9708
ाहुः	-10.9709
▁राज्यपाल	-10.9711
ाभिधान	-10.9712
स्रोतः	-10.9715
रसायनशास्त्र	-10.9715
▁पर्यावरण	-10.9715
च्छामि	-10.9716
सभ्यतायाः	-10.9716
▁भाषया	-10.9717
▁दीक्षित	-10.9722
▁बहुश	-10.9724
▁प्राचीनः	-10.9724
ङ्गि	-10.9725
भर	-10.9725
▁लघुराज्य	-10.9727
लोम	-10.9729
▁नृत्यं	-10.9731
सिध्द	-10.9731
▁सङ्ग्रहः	-10.9736
▁56	-10.9739
सम्पत्तिः	-10.974
न्दी	-10.9741
▁अष्टौ	-10.9745
▁अफगानिस्थान	-10.9745
▁उत्कीर्ण	-10.9746
▁औरङ्गाबाद	-10.9747
रासीत्	-10.9748
ीकृतम्	-10.9748
पञ्चम	-10.975
▁राजान	-10.9753
▁अनुपम	-10.9753
▁कर्तव्या	-10.9753
वेल्	-10.9754
भाष्यस्य	-10.9754
महाभारत	-10.9754
▁तमिळ्	-10.9756
wa	-10.9757
मिद	-10.9757
वस्त्रं	-10.9757
मिन	-10.9758
पर्वते	-10.9759
▁संस्कृतभाषाया	-10.976
्री	-10.9763
प्रेरण	-10.9767
▁उपकरण	-10.9768
▁भारतस्	-10.9768
केश्वर	-10.9769
▁140	-10.9769
हिल्स्	-10.9769
▁प्रचारः	-10.9773
ोऽयम्	-10.9774
ार्च	-10.9781
▁ख्रीष्टाब्दे	-10.9782
ञ्चेति	-10.9782
राक्	-10.9784
माहात्म्य	-10.9785
▁प्रजाना	-10.9786
जलधारा	-10.9787
युक्तस्य	-10.9787
▁वर्धय	-10.9787
▁प्रतिपाद	-10.9788
केवल	-10.9789
वनम्	-10.979
▁कार्यस्य	-10.9792
फर्	-10.9793
कर्तारः	-10.9793
▁सरोजिनी	-10.9794
बठिण्डा	-10.9794
▁कैलास	-10.9794
▁स्यादिति	-10.9794
▁बाणस्य	-10.9794
▁गढवाल	-10.9794
▁वार्तालाप	-10.9794
त्रिंशत्तम	-10.9796
वर्गः	-10.9799
▁परिणत	-10.9799
▁महाकविः	-10.9801
रह	-10.9801
विभागाः	-10.9802
ानन्तर	-10.9802
महर्षे	-10.9802
▁स्पर्ध	-10.9804
▁अङ्गुल	-10.9804
▁यापयन्	-10.9807
▁काश्मीरः	-10.9808
ोत्सवे	-10.981
▁आभूषण	-10.9814
नामिकाया	-10.9814
▁ग्रन्थान्	-10.9815
कन्	-10.9816
▁गोधूम	-10.9817
▁चेद्	-10.9817
▁आहत	-10.9822
▁ग्रामं	-10.9824
ात्मनो	-10.9827
▁यथ	-10.9828
▁दुग्ध	-10.9832
प्रसङ्ग	-10.9834
बन्द	-10.9835
तिरिक्त	-10.9838
बीर	-10.984
प्रमेय	-10.9841
▁अपत्य	-10.9846
लिप्या	-10.9848
▁समुद्रतीर	-10.9849
▁महिमा	-10.9849
महाराज	-10.9849
विवाद	-10.985
बन	-10.9851
▁आनीतवान्	-10.9852
ाभिमुख	-10.9854
▁लोका	-10.9854
भिचार	-10.9855
विश्वविद्यालयतः	-10.9856
प्रसार	-10.9856
मावश्यक	-10.9859
▁for	-10.9862
▁हिन्दुधर्मः	-10.9862
पटल	-10.9863
▁उद्देश	-10.9864
क्रीडासु	-10.9867
▁छत्तीसगढ	-10.9868
▁46	-10.9872
▁नैके	-10.9873
वंशः	-10.9873
▁स्थायि	-10.9876
कुम्भ	-10.9878
मठस्य	-10.9882
त्वमेव	-10.9885
▁उपस्थित	-10.9885
गिरे	-10.9887
ाहारः	-10.9889
▁सत्र	-10.9889
▁मेङ्गलौर	-10.9891
▁सायङ्काल	-10.9891
▁चन्देल	-10.9891
▁केनचित्	-10.9895
▁वत्सरे	-10.9898
धुना	-10.9902
रमणीय	-10.9903
▁अस्याम्	-10.9906
विधेः	-10.9908
▁आम्ल	-10.9908
ैरेव	-10.9908
िङ्ग	-10.9913
ाचार्येण	-10.9913
▁गायन	-10.9914
दानस्य	-10.9917
▁राष्ट्रकूट	-10.9917
यैव	-10.9918
ent	-10.9919
व्यक्ति	-10.992
समुद्रतट	-10.9921
▁अविरत	-10.9924
खनन	-10.9924
्वैव	-10.9924
▁यव	-10.9924
पत्तनम्	-10.9926
सत्याग्रहः	-10.9926
▁उदार	-10.9928
▁राजगुरु	-10.9928
▁योग्यः	-10.993
▁सोमेश्वरः	-10.9931
▁मेला	-10.9932
पितामह	-10.9932
▁कवयः	-10.9932
विजयनगरसाम्राज्य	-10.9933
▁तिरुनेल्वेली	-10.994
▁सनत्कुमार	-10.994
श्राद्ध	-10.994
▁1984	-10.9941
▁षड्विंशतितम	-10.9941
▁1921	-10.9942
▁अनूदित	-10.9945
उद्यान	-10.9945
ct	-10.9947
▁निखिल	-10.9948
▁छन्दः	-10.9949
मतम्	-10.9949
▁कर्मसु	-10.9953
रुपा	-10.9956
▁प्राचार्य	-10.9957
ानुवाद	-10.9958
▁प्राचीनकाल	-10.9958
▁आनन्देन	-10.9959
जन्मा	-10.9961
सम्पादक	-10.9961
आन्दोलनस्य	-10.9963
तन्त्रं	-10.9966
▁विवाहानन्तर	-10.9967
▁सर्वकारप्रचालित	-10.9967
▁नूतना	-10.9971
▁अनुज	-10.9972
▁अन्त्य	-10.9973
▁शङ्कराचार्य	-10.9974
▁भूमिका	-10.9974
धव	-10.9975
ru	-10.9977
▁संशय	-10.9977
▁भाति	-10.9978
▁चन्द	-10.9979
स्वास्थ्य	-10.9981
मला	-10.9983
▁झा	-10.9983
▁वाहनमार्ग	-10.9983
ूष	-10.9987
व्व	-10.9989
▁शुक्लयजुर्वेद	-10.9989
▁हेतोः	-10.999
तरु	-10.999
▁1987	-10.9991
िणा	-10.9994
कन	-10.9995
▁विशेषरूपेण	-10.9995
▁यच्च	-10.9996
▁पाकिस्थानस्य	-10.9996
▁गृहीतवान्	-11.0001
▁हतः	-11.0002
क्व	-11.0002
▁त्रिधा	-11.0003
▁यक्ष	-11.0008
▁पञ्चविंशति	-11.001
▁गीतस्य	-11.001
▁जलयान	-11.0012
▁पिण्ड	-11.0013
ठी	-11.0015
पोल	-11.0016
ासि	-11.0018
प्रतिष्ठ	-11.0018
▁अशुद्ध	-11.002
कुरु	-11.002
ाण्य	-11.0021
तमस्य	-11.0021
सन्दर्भ	-11.0024
▁वर्षत्रय	-11.0025
▁उपनिषद	-11.0025
वता	-11.0025
केषु	-11.0027
यल्	-11.0027
वर्तत	-11.0028
▁प्रहार	-11.0029
नगरीं	-11.003
गमनाय	-11.0031
▁केन्द्रशासित	-11.0034
ाभ्याम्	-11.0035
▁विभक्ता	-11.0035
▁अथर्ववेद	-11.0038
▁कुन्थुनाथ	-11.0039
▁विद्युत	-11.004
ख्यात	-11.0043
▁जन्मदिन	-11.0043
▁गणधर	-11.0044
साधारण	-11.0045
▁2005	-11.0045
जू	-11.0045
र्थम्	-11.0047
▁परब्रह्म	-11.0048
▁चित्रम्	-11.0048
▁सम्मिलिताः	-11.0052
भरत	-11.0054
स्तुति	-11.0054
▁अशोकस्य	-11.0055
up	-11.0056
▁उद्भूतः	-11.0057
▁तत्त्वानि	-11.0058
प्रकल्प	-11.006
▁मृत्तिकायाः	-11.006
भाष्ये	-11.0062
जनपदम्	-11.0064
ोपयोगि	-11.0065
वैभव	-11.0074
▁आनीय	-11.0075
अङ्ग	-11.0076
▁वार्तिक	-11.0076
रीति	-11.0076
▁पञ्ज	-11.0079
राण	-11.008
ह्लाद	-11.0081
वलोक	-11.0083
परिग्रह	-11.0084
पर्ण	-11.0085
▁प्रवेशद्वार	-11.0086
▁160	-11.0086
▁बलात्	-11.0086
▁वैश्य	-11.0087
शरीरं	-11.0088
▁समर्थाः	-11.0088
▁देशाः	-11.0088
▁करणीयं	-11.0089
▁1965	-11.009
▁1977	-11.0091
विशेषाः	-11.0093
▁भारतवर्षे	-11.0093
▁अनुसृत्य	-11.0095
▁पोष	-11.0096
महाराजस्य	-11.0097
क्षित	-11.0097
▁पर्वतप्रदेशे	-11.0098
ग्नौ	-11.0098
▁श्राव	-11.01
lə	-11.0101
▁बहून्	-11.0102
əhə	-11.0102
▁वायुमण्डल	-11.0102
▁धरति	-11.0105
▁पट्टिका	-11.0106
▁तपो	-11.0106
देशम्	-11.0107
ोद्योगः	-11.0107
▁मिलति	-11.0108
▁रामदास	-11.0109
▁पुस्तकम्	-11.0109
▁परिच	-11.0113
▁ऋतु	-11.0114
▁मुहम्मद	-11.0114
न्द्रियाणि	-11.0118
▁प्रसन्नाः	-11.0118
घण्टा	-11.012
▁परमा	-11.0125
▁D	-11.0126
▁निष्काम	-11.0135
▁स्तोत्र	-11.0136
वैष्णव	-11.0136
चातुर्य	-11.0139
▁स्पेन्	-11.0139
ाध्यात्मिक	-11.0139
पदेन	-11.0139
समीप	-11.014
ोद्यमः	-11.014
▁पार्श्वनाथ	-11.014
▁1973	-11.014
मधि	-11.0146
▁उदाहरणानि	-11.0147
संज्ञा	-11.0148
महिम	-11.015
समितिः	-11.015
▁उपस्थितिः	-11.015
ीयानि	-11.0153
XF	-11.0154
▁स्थितिकालः	-11.0155
▁प्रमुखम्	-11.0157
▁प्रतापसिंह	-11.016
करणेन	-11.016
ब्ध	-11.0161
मातृ	-11.0161
1%	-11.0161
स्थापित	-11.0162
▁सावरकरः	-11.0163
माना	-11.0166
▁चतुर्दशे	-11.0167
▁इर	-11.0167
▁लम्ब	-11.0168
मात्रे	-11.0168
र्षे	-11.017
▁यथोक्त	-11.0171
ाधिकारः	-11.0171
पूर्वदिश	-11.0172
रुच	-11.0172
ात्मानं	-11.0172
फख	-11.0172
सद	-11.0173
▁विधानसभायाः	-11.0175
कुलस्य	-11.0175
ारब्ध	-11.0179
पङ्क्त	-11.0179
विद्यार्थि	-11.0182
▁तत्व	-11.0183
▁चलनचित्र	-11.0184
शिलया	-11.0184
▁अनुसन्धान	-11.0185
ोक्तं	-11.0186
त्रिभिः	-11.0188
ावर	-11.0188
▁तृश्शूर्	-11.0189
▁क्लिष्ट	-11.0189
▁पराशर	-11.0189
युद्धं	-11.019
▁मार्गशीर्ष	-11.019
सदृशाः	-11.0192
▁गाढ	-11.0193
ेन्द्रनाथ	-11.0193
महाविद्यालयस्य	-11.0194
▁सम्पादितवान्	-11.0195
▁कृपया	-11.0196
आफ्रिका	-11.0197
▁महाकाल	-11.0201
कारणतः	-11.0205
▁भट्टि	-11.0206
दीक्षा	-11.0207
व्यसन	-11.0208
हं	-11.0208
▁भगवत्	-11.0215
▁कृतमासीत्	-11.0216
प्रकारः	-11.0216
वाण्या	-11.0216
▁निषिद्ध	-11.0217
रोप	-11.0219
लैण्ड	-11.0221
क्ल	-11.0222
▁चैव	-11.0223
सम्प्रदायः	-11.0224
▁पतितः	-11.0225
कुर	-11.0226
ागत्य	-11.0229
वयस्क	-11.0232
▁अङ्कीय	-11.0233
▁देशं	-11.0237
▁रचितः	-11.0238
▁विराम	-11.0239
▁पचमढी	-11.0239
▁मम्मट	-11.0239
▁600	-11.0239
▁वैशिष्ट्यं	-11.024
स्पन्दन	-11.024
▁वनस्पतयः	-11.024
योग्या	-11.0241
▁निष्पन्न	-11.0241
▁परिमाण	-11.0244
▁प्रसिद्धिं	-11.0245
▁कथनानुसार	-11.0245
▁सौन्दर्यम्	-11.0246
पत्रस्य	-11.0248
▁जित्वा	-11.0249
▁इन्द्रस्य	-11.0249
▁61	-11.025
विहीन	-11.025
▁अभिनन्दननाथ	-11.025
यात्रायाः	-11.025
विज्ञानं	-11.0251
▁वास्तु	-11.0252
कर्मसंन्यास	-11.0254
ैक्य	-11.0254
▁चोर	-11.0263
▁सघन	-11.0266
विद्यापीठ	-11.0269
▁वंशस्य	-11.027
▁विद्यमानम्	-11.0271
लभ्य	-11.0271
XE	-11.0272
▁प्रदेशाः	-11.0273
▁बालानां	-11.0273
▁यज्ञस्य	-11.0274
सूर	-11.0275
▁भी	-11.0276
व्यं	-11.0277
मात्रा	-11.028
पूर्ति	-11.0283
▁रतन	-11.0285
न्यस्य	-11.0286
न्ये	-11.0286
▁सर्वोत्कृष्ट	-11.029
▁खम्भात	-11.029
▁तिरुवल्ला	-11.029
▁काञ्चन	-11.0291
▁अत्याचार	-11.0291
▁भवभूति	-11.0291
▁समाना	-11.0292
▁चर्च	-11.0293
▁1911	-11.0293
कवच	-11.0294
ातीत	-11.0296
ang	-11.0296
सृ	-11.0299
▁अन्यदेश	-11.0301
रहितं	-11.0301
पालक	-11.0303
▁पटना	-11.0304
▁वर्गीकरण	-11.0304
वेदान्त	-11.0304
▁किम	-11.0307
वर्षा	-11.0312
चतुर	-11.0313
वाहिनी	-11.0314
पोर	-11.0319
ाभिनय	-11.0322
ान्वेषण	-11.0322
▁साबरमती	-11.0323
सत्त्व	-11.0325
▁जनसामान्य	-11.0325
ेतत्	-11.0326
▁वसु	-11.0328
प्लव	-11.0328
▁अभिवृद्धि	-11.0331
ya	-11.0333
▁कुतः	-11.0335
▁युवान	-11.0337
▁समाधान	-11.0338
जोधपुर	-11.0341
▁पाणिनीय	-11.0341
▁मिथिला	-11.0341
▁नाद	-11.0341
▁सम्पन्नः	-11.0342
वानिति	-11.0342
▁नैनिताल	-11.0343
▁सारल्य	-11.0343
▁त्रिविक्रम	-11.0343
घ्र	-11.0344
▁भज	-11.0345
काणि	-11.0345
सङ्क्रमण	-11.0346
▁वक्ष	-11.0346
केरळ	-11.0346
▁गजाः	-11.0349
▁राजीव	-11.035
▁श्रीहर्ष	-11.035
▁ग्राह्य	-11.0352
स्वतन्त्र	-11.0353
▁हेमचन्द्र	-11.0354
मिन्	-11.0355
▁प्रभृति	-11.0357
▁बङ्गाली	-11.0358
▁अश	-11.0358
युव	-11.0366
▁कदाचिद	-11.0367
▁सिद्धः	-11.0367
▁मार्गाः	-11.0368
▁स्मरणार्थ	-11.0371
बाह	-11.0373
▁वृक्षः	-11.0374
▁कलिङ्ग	-11.0375
काराणां	-11.0381
बाहु	-11.0382
▁व्यवह	-11.0384
▁आकर्ष	-11.0384
▁उत्सवान्	-11.0385
▁रवीन्द्र	-11.0385
▁आन्दोलनम्	-11.0388
राजमार्गाः	-11.0388
▁पादाः	-11.039
▁भूमार्ग	-11.0392
▁आयुष्य	-11.0392
▁लभन्ते	-11.0392
▁आकर्षणकेन्द्र	-11.0392
▁श्रेयान्	-11.0393
▁ध्वजारोहण	-11.0393
▁आवास	-11.0394
कारकं	-11.0394
महत्त्व	-11.0396
▁त्र	-11.0397
▁कम्पनी	-11.0398
▁180	-11.0399
▁ऐक्य	-11.0399
महाकाव्य	-11.04
एशिया	-11.0401
▁आवरण	-11.0401
▁बाणभट्ट	-11.0402
▁सोऽह	-11.0403
▁समस्यानां	-11.0403
▁द्वैत	-11.0405
▁उक्तवन्तः	-11.0407
क्रोध	-11.0407
ासन्	-11.0409
ाघात	-11.041
ताडन	-11.041
▁ग्रामाः	-11.0413
▁सोत्साह	-11.0413
गुजरात	-11.0415
ारण्यक	-11.0417
▁मानवीय	-11.0417
वृद्धिः	-11.0423
▁गौरी	-11.0423
▁गृह्णाति	-11.0426
▁शब्दार्थ	-11.0429
नक्षत्रस्य	-11.0432
नल्	-11.0433
▁धारवाड	-11.0435
कक्षा	-11.0436
विदित	-11.0438
गृहाणि	-11.044
▁तदपि	-11.0441
ɪn	-11.0441
योर्मध्ये	-11.0442
▁प्रगतिः	-11.0443
▁अव्यय	-11.0443
भौतविज्ञान	-11.0444
▁दत्तात्रेय	-11.0444
▁नागार्जुनस्य	-11.0444
▁फरीदकोट	-11.0444
▁फ्रेञ्च	-11.0444
▁पाणिने	-11.0444
▁फलादेश	-11.0446
▁रक्षितुं	-11.0447
▁आज्ञ	-11.0447
▁कीर्तन	-11.0448
▁विभज्यते	-11.0448
▁दाह	-11.0449
इन्	-11.045
em	-11.0452
▁कक्षा	-11.0452
इण्डियन्	-11.0453
▁उष्णं	-11.0454
्बलपुर	-11.0456
▁शिष्याः	-11.0457
▁प्रकाशनं	-11.0457
▁इत्यनयो	-11.0462
▁विलास	-11.0465
▁अर्ह	-11.047
पात्राणि	-11.0473
मलै	-11.0473
▁नानाविध	-11.0475
ऽप्य	-11.0476
▁नेपालदेशस्य	-11.0478
स्तो	-11.0478
बलं	-11.0479
▁जनजाति	-11.048
▁लक्षणम्	-11.0481
▁पुरो	-11.0483
▁समक्ष	-11.0484
पल्	-11.049
प्रज्ञ	-11.049
▁देशसेवा	-11.049
▁निकट	-11.049
▁चायस्य	-11.0491
वाङ्मय	-11.0493
▁किलोमीटरमिताः	-11.0494
जगति	-11.0494
▁सहस्राधिका	-11.0495
▁शृणोति	-11.0496
▁95	-11.0496
▁जायन्ते	-11.0497
▁विद्यार्थिन	-11.0497
माश्रित्य	-11.0498
▁कञ्चन	-11.05
महादेव	-11.05
▁अक्टोबर्	-11.0501
▁काव्येषु	-11.0502
▁दलस्य	-11.0503
▁प्रदर्शितवान्	-11.0505
▁स्वस्व	-11.0505
▁गर्व	-11.0506
भूतः	-11.0506
सेतुः	-11.0506
स्मारकाणि	-11.0506
पौरुष	-11.0507
संविधान	-11.0508
भारतरत्न	-11.0508
▁विशुद्ध	-11.0511
क्रीडक	-11.0511
ोद्यान	-11.0512
▁आन्ध्र	-11.0512
एषा	-11.0512
िदं	-11.0513
▁रिक्त	-11.0516
▁किशोर	-11.0517
▁एकविंशति	-11.0519
कश्च	-11.0524
▁सोऽ	-11.0527
रहिता	-11.0527
▁शास	-11.0528
कृतिषु	-11.0529
भाषाः	-11.053
▁प्रसृत	-11.053
ादयो	-11.0531
नायकस्य	-11.0534
▁सौराष्ट्र	-11.0535
विषयस्य	-11.0537
तीर्थं	-11.0537
▁गुणा	-11.0537
▁निरस्त	-11.0539
▁तद्विमानस्थानक	-11.054
▁54	-11.0542
ास्पद	-11.0542
▁वायुमण्डले	-11.0544
▁नागर	-11.0545
▁कमला	-11.0546
धनं	-11.0547
▁महादेश्वरा	-11.0548
▁व्यवह्रियते	-11.0548
▁1900	-11.0549
▁समन्वय	-11.055
▁अनुचित	-11.0551
दयः	-11.0552
फ्रे	-11.0552
▁मोदी	-11.0553
युगल	-11.0554
▁जीवस्य	-11.0556
पत्त	-11.0556
▁तद्दिने	-11.0558
भवनानि	-11.0559
▁अस्म	-11.056
▁संस्थानम्	-11.0562
▁स्वस्थ	-11.0563
धावन	-11.0566
▁भिन्नं	-11.0569
ार्द्ध	-11.0569
▁प्रक्षेप	-11.057
योग्यता	-11.0571
▁निवासस्थान	-11.0571
ावयव	-11.0572
▁84	-11.0573
▁उत्तरकन्नडमण्डल	-11.0573
बै	-11.0573
पुत्री	-11.0574
▁अधिकाधिक	-11.0576
▁संशयः	-11.0577
ेन्दु	-11.0578
▁मध्यभाग	-11.0578
वर्गे	-11.0579
कर्त्ता	-11.0579
▁अन्धकार	-11.0579
खात	-11.0581
-‘	-11.0584
▁नैका	-11.0585
▁संस्कृतेः	-11.0585
▁राजन्	-11.0588
▁बसु	-11.0588
ate	-11.0589
निरपेक्ष	-11.0589
▁चौहानवंशस्य	-11.059
व्याख्यान	-11.0591
▁मार्गेण	-11.0595
▁बेङ्गलूरुनगर	-11.0597
▁होय्सळ	-11.06
विजेता	-11.0601
▁झटित	-11.0602
▁1917	-11.0604
▁ग्रीष्मकाले	-11.0604
▁मिलन्ति	-11.0606
▁तेषा	-11.0606
▁परिस्थिति	-11.0607
कवेः	-11.0607
▁द्वेष	-11.0609
▁दरिद्र	-11.0613
▁अवयव	-11.0614
▁दशरथः	-11.0614
भवन्ति	-11.0614
कर्तुं	-11.0617
▁निवेदिताया	-11.0618
मरु	-11.0621
वरी	-11.0623
▁तमात्	-11.0624
▁परोक्ष	-11.0624
▁तमिळु	-11.0625
प्राप्त्यर्थं	-11.0625
ज़्	-11.0625
▁गुल्	-11.0627
मूर्त	-11.063
▁स्थापिताः	-11.063
पेट	-11.063
▁उद्घोष	-11.0636
▁समाप्ति	-11.0638
प्रभेद	-11.0638
भेदात्	-11.0639
कम्पन	-11.0641
रुद्ध	-11.0641
▁नम	-11.0646
all	-11.0647
▁17.	-11.0648
▁स्वास्थ्यं	-11.0648
▁बहुविधा	-11.0649
ापयत्	-11.0651
▁अनित्य	-11.0652
भरद्वाज	-11.0653
▁उपविश्य	-11.0653
▁विश्राम	-11.0653
▁कलायाः	-11.0653
▁घृत	-11.0654
समवाय	-11.0654
▁खड्ग	-11.0654
रण्य	-11.0655
▁शक्तिपीठ	-11.0655
▁बेङ्गलूरु	-11.0659
▁चित्रस्य	-11.066
▁अर्वाचीन	-11.0664
▁अधिकृत	-11.0666
▁सिद्धि	-11.0666
स्फुट	-11.0669
कालिदास	-11.067
▁वर्तमाने	-11.0671
▁वर्णितः	-11.0672
▁मन्दिराणां	-11.0672
प्रार्थना	-11.0676
▁प्रतिपाद्य	-11.0676
▁मनुष्याणां	-11.0678
थर्	-11.0679
नियमान्	-11.0681
परित्याग	-11.0682
▁नर्मदानद्या	-11.0682
▁द्विविधा	-11.0684
मतानुसारेण	-11.0685
तन्त्रस्य	-11.0687
▁मृगया	-11.0691
भवान्	-11.0691
▁प्रथमो	-11.0691
वासिन	-11.0691
▁गन्तव्यम्	-11.0692
गृह्यसूत्र	-11.0692
▁रावणस्य	-11.0693
▁सञ्जात	-11.0693
▁निष्कास	-11.0694
मानस	-11.0696
▁आधारभूत	-11.0697
▁पर्यटक	-11.0697
▁अभिनव	-11.0698
▁इत्या	-11.07
▁जन्मनि	-11.0701
▁उडुपी	-11.0701
▁गिर	-11.0702
ीकर्तुं	-11.0705
▁पुदुक्कोट्टै	-11.0706
▁उच्यन्ते	-11.0706
▁1946	-11.0707
▁1951	-11.0707
▁1994	-11.0708
▁मेलितु	-11.0708
▁सर्वतः	-11.0709
▁जह	-11.071
▁इत्यादय	-11.071
▁कृष्युत्पादनानि	-11.0711
ालस्य	-11.0715
दीनां	-11.0715
▁राजस	-11.0716
परिवर्तनानि	-11.0716
प्रतिपादन	-11.0717
टल्	-11.0718
ast	-11.0719
▁भवत्य	-11.0721
गाह	-11.0722
▁असाधारण	-11.0724
▁खण्डनं	-11.0725
▁प्रवचने	-11.0725
चीन	-11.0728
कर्षण	-11.0729
संस्थाने	-11.0732
गायक	-11.0733
समकालिक	-11.0739
▁बहिर	-11.0742
स्वामिन	-11.0746
दुर्गम्	-11.0749
शैत्य	-11.0751
ेणैव	-11.0753
▁गुरू	-11.0754
गणपति	-11.0755
ba	-11.0757
▁अधिकविवरणार्थ	-11.0759
▁मोक्षं	-11.076
G	-11.076
ब्रिटेन	-11.0761
▁गुरुत्वाकर्षण	-11.0761
▁संशोधक	-11.0764
क्रे	-11.0764
▁b	-11.0766
ब्राह्मणस्य	-11.077
▁आइ	-11.0771
कर्मणः	-11.0772
डोल	-11.0772
▁व्यस्त	-11.0773
उद्यानं	-11.0773
▁भजन	-11.0776
▁पर्वतप्रदेश	-11.0777
▁दत्तं	-11.0779
खान	-11.0779
▁चल	-11.078
▁विद्यालयेषु	-11.078
लाङ्ग	-11.078
केन्द्रस्य	-11.0782
▁योगी	-11.0783
▁चलच्चित्रे	-11.0785
▁कोङ्कण	-11.0786
कार्यक्रमस्य	-11.0787
▁बिहारराज्यस्य	-11.0788
▁वीक्षण	-11.0793
लम्बमान	-11.0796
▁विस्तृता	-11.0797
सम्मत	-11.0798
▁मिजोरामराज्य	-11.0798
▁विरल	-11.0803
▁मात्रक	-11.0803
▁वैयक्तिक	-11.0803
▁तान्त्रिक	-11.0803
▁किञ्चिद	-11.0805
मतः	-11.0806
▁निर्गुण	-11.0808
वर्णस्य	-11.0808
▁बालसाहित्य	-11.0809
▁व्यतीतानि	-11.0811
जगतः	-11.0811
▁आदिष्ट	-11.0812
▁परिणीतवान्	-11.0812
▁वाजपेयी	-11.0813
▁मृत्युदण्ड	-11.0814
▁नारी	-11.0814
द्वये	-11.0815
▁उपराष्ट्रपति	-11.0815
ीक्रियते	-11.0815
▁कांस्य	-11.0815
बृहत्	-11.0816
▁वरुण	-11.0816
ाऽभवत्	-11.0817
▁रामेश्वर	-11.0818
कण्टक	-11.0819
होम	-11.0819
मन्त्राणां	-11.082
▁वन्दे	-11.0821
▁सावधान	-11.0823
योगिनः	-11.0824
▁हर्षचरित	-11.0824
श्रेय	-11.0824
▁गोवाराज्य	-11.0825
लक्षणं	-11.0825
▁असत्य	-11.0825
▁कारयति	-11.0828
यजुः	-11.083
तीव	-11.083
यन्त्रागार	-11.0831
▁मण्डप	-11.0832
▁केन्द्रिय	-11.0833
तीय	-11.0833
ियर्	-11.0833
गान्धि	-11.0835
गणेश	-11.0838
3.20	-11.0838
▁प्रभाकर	-11.0838
▁परस्परम्	-11.0843
फलकम्	-11.0846
▁पुष्य	-11.0848
▁सिद्धं	-11.085
▁क्षीण	-11.0851
▁सन्न्यास	-11.0853
▁मुक्ता	-11.0854
▁सोपान	-11.0856
▁युधिष्ठिर	-11.0856
▁प्रत्यक्षं	-11.0858
प्रत्याशि	-11.086
रिक्	-11.0861
▁44	-11.0863
▁ओङ्कार	-11.0866
पद्मनाभ	-11.0866
▁अवलम्ब्य	-11.0866
▁उर्वर	-11.0866
▁आचर्यमाण	-11.0867
▁बद्धः	-11.0869
▁रोगस्य	-11.0871
महाभाग	-11.0872
ea	-11.0874
▁निरूपितवान्	-11.0875
कार्यक्रमाः	-11.0877
▁हत	-11.0878
संख्याक	-11.0878
▁कुटुम्बस्य	-11.088
▁ब्रि	-11.0882
▁अस्मान्	-11.0883
▁मासत्रय	-11.0884
चर्चा	-11.0884
▁गुहाया	-11.0888
▁राज्यमिद	-11.0889
▁कश्चिद्	-11.0891
मन्तर	-11.0891
▁विनष्ट	-11.0893
गै	-11.0894
रेखाया	-11.0896
▁मीमांसा	-11.0897
किलोमीटर्	-11.0898
याश्च	-11.0898
▁कार्यरतः	-11.09
▁भीमा	-11.0904
▁पोरबन्दर	-11.0905
▁15.	-11.0906
▁उदयन	-11.0912
सागरतट	-11.0913
▁68	-11.0914
▁वङ्गप्रदेश	-11.0915
गाम्भीर्य	-11.092
▁प्रागेव	-11.092
▁प्रदीयते	-11.092
▁कृष्णयजुर्वेद	-11.092
▁नद्यौ	-11.092
▁विदेशे	-11.0921
▁राजधान्या	-11.0921
▁आहूय	-11.0921
▁कालीकट	-11.0921
▁अर्हन्ति	-11.0923
▁माण्ड	-11.0925
▁उत्तराधिकारिण	-11.0925
▁टो	-11.0927
▁अनुक्षण	-11.0927
ाधिपति	-11.0928
▁रक्षणार्थं	-11.0929
▁पारसी	-11.0929
F	-11.0929
▁वाणी	-11.093
▁कल्	-11.0931
ट्टा	-11.0933
▁तन्त्रज्ञान	-11.0935
▁ब्रह्मण	-11.0937
▁आत्मतत्त्व	-11.0938
▁गृह्यते	-11.0938
स्पृश	-11.0938
▁हस्तकला	-11.0941
▁विधानसभा	-11.0942
▁परामर्शं	-11.0943
समूहस्य	-11.0946
सुल्तान	-11.0947
▁जुलैमास	-11.0948
▁सज्जन	-11.0948
भौतिक	-11.095
ाकर्षण	-11.095
वृत्त्या	-11.0951
▁चैत्र	-11.0951
ान्ध	-11.0952
▁तपसा	-11.0952
नुभव	-11.0952
माने	-11.0953
▁संस्कृतसाहित्य	-11.0953
पदवीम्	-11.0954
एन्	-11.0954
चण्डी	-11.0958
ुष्ठ	-11.096
▁तिरुवनन्तपुरम्	-11.0961
▁पाण्डवाः	-11.0962
▁पश्चिमघट्ट	-11.0963
▁बलं	-11.0964
▁लता	-11.0965
▁अन्याय	-11.0965
ारूढ	-11.0966
▁कनिष्ठ	-11.0967
▁पदयात्रा	-11.0968
▁क्रीडायां	-11.0972
▁उज्जयिनी	-11.0974
▁ठाकुर	-11.0974
▁ज्वार	-11.0975
▁भयङ्कर	-11.0975
किङ्ग्	-11.0978
▁1918	-11.0978
▁अतिरिच्य	-11.0979
▁मदनलाल	-11.0981
▁सेलं	-11.0982
मासपर्यन्तम्	-11.0983
▁भवन्तु	-11.0985
हत्या	-11.0987
विज्ञाने	-11.0988
XC	-11.099
▁कपट	-11.099
▁असुर	-11.0991
शोधन	-11.0992
साङ्ग	-11.0994
▁दीर्घः	-11.0994
▁भगतसिंह	-11.0997
▁52	-11.0998
बहुल	-11.0998
र्त्त	-11.0999
▁सत्यमेव	-11.0999
▁पठन्	-11.0999
रमण	-11.1
▁62	-11.1
▁तैत्तिरीय	-11.1
भाज	-11.1
▁टी	-11.1
▁व्यायाम	-11.1002
औ	-11.1004
परम्परायां	-11.1004
शीलः	-11.1007
▁प्रसिद्धे	-11.1008
▁उत्तरभारते	-11.101
▁समुद्रतटे	-11.1012
▁मनुस्मृत	-11.1012
ाभिलेख	-11.1013
▁दर्शनाय	-11.1014
▁आन्ध्रप्रदेशस्य	-11.1015
▁वनवास	-11.1016
▁विठ्ठल	-11.1018
गणना	-11.1023
ोऽनु	-11.1024
▁ग्रन्थानां	-11.1025
पूर्वकम्	-11.1027
शक	-11.1027
▁भारतीयजनतापक्ष	-11.1028
▁अपार	-11.1028
▁नन्दी	-11.103
▁गगन	-11.1031
▁इत्युक्त्वा	-11.1032
▁आदिम	-11.1034
स्वप्न	-11.1035
▁उत्साह	-11.1036
अन	-11.1038
▁क्रियन्ते	-11.1039
वास्तु	-11.1039
▁देशद्रोह	-11.1042
▁विपक्ष	-11.1045
▁पुल	-11.1045
▁जून्	-11.1047
▁नामोल्लेख	-11.1047
▁वैद्यः	-11.1048
▁मुखात्	-11.1048
बाबा	-11.1053
बर्ग	-11.1053
श्रुति	-11.1053
वसति	-11.1054
▁सुबन्	-11.1054
लेन्	-11.1054
उत्	-11.1056
▁सेवायै	-11.1057
▁तमिऴ	-11.106
▁गोर	-11.1062
गङ्ग	-11.1065
विख्यात	-11.1065
▁ऋचः	-11.1069
▁महाराजस्य	-11.1073
गणतन्त्र	-11.1075
कान	-11.1078
आश्रम	-11.1079
▁साधनां	-11.1082
▁जेजाकभुक्ति	-11.1084
▁विश्वरूपदर्शन	-11.1084
▁शिक्षकाः	-11.1084
▁वक्रोक्ति	-11.1085
▁क्रान्तिकारी	-11.1085
▁अनुयायिनः	-11.1085
▁कूर्म	-11.1085
▁1989	-11.1086
समन्वित	-11.1087
▁विप्र	-11.1087
पुरस्कारः	-11.1088
दाता	-11.1089
▁लक्षणानि	-11.1091
▁रेलमार्गेण	-11.1093
▁अङ्गीकृता	-11.1093
▁देशसेवायाः	-11.1095
वल्ली	-11.1097
मुक्ति	-11.1097
पल्ली	-11.1099
वत्यः	-11.1101
ong	-11.1103
तीनां	-11.1103
▁आघात	-11.1104
▁पूर्णिमा	-11.1104
ेतिहासे	-11.1106
ाथम्ये	-11.1108
est	-11.1112
▁समुत्	-11.1113
▁शतमाने	-11.1114
योजित	-11.112
▁स्थितौ	-11.1121
स्तू	-11.1122
▁वेगः	-11.1123
▁स्वेन	-11.1123
सेवन	-11.1125
▁नीतवान्	-11.1126
▁विनय	-11.1128
▁वडोदरा	-11.1128
प्रताप	-11.1129
▁वक्तव्य	-11.1131
▁दीक्षानन्तर	-11.1132
▁वासुदेवः	-11.1133
▁दलित	-11.1136
▁14.	-11.1137
▁अरनाथ	-11.1137
▁बुद्ध्या	-11.1137
वेतन	-11.1138
▁1902	-11.1139
▁निर्मान्ति	-11.1139
▁साधूनां	-11.1139
▁आलङ्कारिक	-11.1139
▁हिन्दुस्तानी	-11.114
▁सूर्योदय	-11.1143
षष्टितम	-11.1144
भृत	-11.1144
▁जनगणनानुसार	-11.1145
▁अधीत	-11.1146
hə	-11.1149
भयोः	-11.115
▁प्रातःकाले	-11.1151
▁अभविष्यत्	-11.1151
द्धि	-11.1152
राष्ट्रियोद्यानं	-11.1152
भूति	-11.1152
▁हिन्दीभाषा	-11.1152
▁सौकर्य	-11.1154
▁दैर्घ्य	-11.1155
मस्तक	-11.1156
कन्दुक	-11.1156
▁स्वर्गः	-11.1156
▁नामभिः	-11.1157
कर्षक	-11.1158
▁व्यवहारे	-11.1158
▁महम्मदीय	-11.1159
▁सुधा	-11.1161
शरण	-11.1162
शिय	-11.1163
▁शर्मा	-11.1163
▁निवारण	-11.1164
ोपाय	-11.1164
▁सागरस	-11.1166
▁दिवङ्गता	-11.1167
▁बेल	-11.1167
▁भवत्या	-11.1168
▁चालित	-11.1169
▁अनुजः	-11.1171
▁संलग्ना	-11.1171
▁अमूल्य	-11.1172
सति	-11.1172
▁स्वतन्त्रभारत	-11.1173
▁धनस्य	-11.1174
▁विचारित	-11.1175
▁भवनानि	-11.1177
गाव्	-11.1181
सङ्घर्ष	-11.1182
्तरतः	-11.1183
▁सिद्धराज	-11.1184
त्यादि	-11.1184
समयः	-11.1187
नेतारः	-11.1187
▁चतुर्थः	-11.1188
▁अनेकवार	-11.1191
सम्बन्धी	-11.1191
सूचक	-11.1192
▁निवासः	-11.1192
न्नासीत्	-11.1192
▁जयदेव	-11.1193
▁निर्मातुं	-11.1195
▁प्रैषयन्	-11.1195
▁मध्यरात्रौ	-11.1195
▁चन्दबरदाय	-11.1195
▁अवतीर्ण	-11.1195
▁पठानकोट	-11.1195
▁ताण्ड्य	-11.1195
ोद्धार	-11.1195
▁पश्यामः	-11.1196
भण्डार	-11.1196
▁दृष्टा	-11.1196
▁कारिका	-11.1197
arch	-11.1197
वास्तव्य	-11.1198
कुटुम्बे	-11.1199
▁उपनिषदां	-11.1201
▁भुवन	-11.1201
▁व्यङ्ग्य	-11.1202
▁शाटिका	-11.1202
▁तिष्ठन्ति	-11.1203
▁खेडामण्डल	-11.1203
ाभावः	-11.1203
विद्वांस	-11.1204
▁महिष	-11.1205
भिक्षा	-11.1205
▁चरम	-11.1205
▁कर्णाटकसङ्गीत	-11.1207
क्टर	-11.1208
▁आभारतं	-11.1208
▁पराजित्य	-11.1208
भाजन	-11.1208
धीत	-11.1209
▁विधिः	-11.1209
स्तदा	-11.121
पद्यत	-11.1218
▁विचारान्	-11.1218
तीत्य	-11.1219
▁आदित्य	-11.122
परिचित	-11.1221
ादीन्	-11.1226
▁कोड	-11.1229
समास	-11.1231
मुनिना	-11.1233
मद्य	-11.1234
पुरातन	-11.1235
▁सिख	-11.1236
वृत्तं	-11.1238
▁शिवरात्रि	-11.1238
विषयकं	-11.1239
▁प्रस	-11.1242
वर्मणः	-11.1242
निपात	-11.1242
ोच्यते	-11.1243
▁कच्छ	-11.1248
पुत्रस्य	-11.1248
▁नारायणः	-11.125
▁वाल्मीकि	-11.125
गोड	-11.125
▁आहूतवान्	-11.1251
▁जालन्धर	-11.1251
▁अखिलभारतीय	-11.1254
प्रदूषण	-11.1255
▁व्यक्तिगत	-11.1256
▁आङ्ग्लभाषया	-11.1258
▁पद्यानि	-11.1258
विमाननिस्थान	-11.1259
nə	-11.1261
▁इहलोक	-11.1261
▁उदाहरणार्थं	-11.1261
▁माध्यम	-11.1261
गुणैः	-11.1264
▁शास्त्रार्थ	-11.1264
नपि	-11.1264
▁इत्यादीन्	-11.1265
ुत	-11.1267
▁नीलकण्ठ	-11.127
▁परिश्रमेण	-11.1272
विधिना	-11.1273
▁धातोः	-11.1276
▁तृतीया	-11.1276
▁सम्भावना	-11.1278
ाध्ययनं	-11.1279
▁हरिण	-11.1282
विजये	-11.1282
▁दिग्	-11.1284
▁सञ्चाल	-11.1284
समित	-11.1285
▁अक्तूबर	-11.1289
ब्राह्मणे	-11.129
सामाजिक	-11.1291
शकट	-11.1292
▁सुरत	-11.1294
ण्डु	-11.1295
मभ्य	-11.1296
तूर	-11.1299
▁भित्त	-11.1301
ज्योतिष	-11.1302
परिच्छेद	-11.1304
ास्ते	-11.1304
▁तान	-11.1305
▁व्याध	-11.1305
क्रमाङ्क	-11.1306
▁मेघदूत	-11.1307
स्त्य	-11.1308
विपाक	-11.131
▁विद्रोह	-11.1313
विचारः	-11.1316
▁:-	-11.1318
गणस्य	-11.1318
माणः	-11.1318
गोस्वामी	-11.1318
▁नक्षत्राणि	-11.1319
▁मिश्रित	-11.1319
▁भस्म	-11.132
▁ओरिस्सा	-11.132
▁इदम	-11.1321
छत्रपति	-11.1322
▁दृष्टवती	-11.1322
▁कथितम्	-11.1323
▁अपमानं	-11.1324
▁स्वीये	-11.1324
भावे	-11.1325
वने	-11.1325
▁धारणा	-11.1329
नागरिक	-11.1333
▁अनेकविध	-11.1336
कृषिः	-11.1338
विज्ञ	-11.1339
▁गोलिका	-11.134
नुगुण	-11.1342
बस्	-11.1343
▁विलय	-11.1343
▁देय	-11.1345
▁औषधत्वेन	-11.1345
प्ट	-11.1347
परिमितम्	-11.1347
▁पल	-11.1347
कृष्य	-11.1349
▁बालकानां	-11.135
धार्मिक	-11.1352
▁प्राप्तव्य	-11.1354
▁ऋत	-11.1354
▁श्रीमद्	-11.1357
ऽस्य	-11.1358
▁पत्राणि	-11.136
pur	-11.1361
स्नेह	-11.1363
▁असूचयत्	-11.1363
▁विहग	-11.1364
▁उत्पाद्यन्ते	-11.1364
▁ज्वर	-11.1364
▁प्राधान्येन	-11.1365
▁नायिका	-11.1365
▁अवसान	-11.1365
▁भवत्येव	-11.1367
▁सद	-11.1369
▁प्रदर्शयति	-11.137
▁शरीरम्	-11.1371
▁प्रान्ते	-11.1371
निर्व	-11.1372
▁उपस्थापन	-11.1374
▁भूयः	-11.1375
एवं	-11.1376
ुन्न	-11.1376
▁सिद्धान्तस्य	-11.1377
समृद्ध	-11.1382
▁युवा	-11.1386
▁निजामी	-11.1387
स्मृत	-11.1388
प्रतिभा	-11.1388
▁विमल	-11.1388
▁ब्रह्मज्ञान	-11.1394
▁देशाय	-11.1394
ैका	-11.1395
▁सम्राट्	-11.1395
▁विक्टोरिया	-11.1398
भूय	-11.1398
▁अधर	-11.1399
▁गुरुनानक	-11.1399
लब्ध	-11.14
▁अङ्कित	-11.1401
कोटे	-11.1401
▁बहिर्	-11.1404
▁अमेरिकादेशे	-11.1405
गन	-11.1406
▁सफलः	-11.1407
इस्लाम्	-11.1408
मूढ	-11.1411
पाठः	-11.1413
सप्ततितम	-11.1416
संवाद	-11.1416
▁समाजसेवा	-11.1416
पतन	-11.1417
▁कोडगु	-11.1418
▁जू	-11.1418
▁परिवर्तनम्	-11.1419
▁उत्पद्यन्ते	-11.142
ल्फ	-11.1421
▁अपौरुषेय	-11.1423
▁जातस्य	-11.1424
▁रघुनाथ	-11.1424
▁कबीर	-11.1425
▁संशोधितवान्	-11.1426
▁आगच्छन्	-11.1426
▁सिद्धिं	-11.1428
▁प्रचलन	-11.1429
भेदः	-11.143
पुरुषार्थ	-11.143
प्ले	-11.1431
▁रचनां	-11.1435
▁सिंहस्य	-11.1437
▁वह	-11.1438
▁नरेन्द्रस्य	-11.1438
▁चिन्तयति	-11.1439
ाभिमान	-11.1439
रक्षकः	-11.1443
िमा	-11.1444
▁राज्यस्थ	-11.1444
द्वीपः	-11.1445
▁गच्छन्त	-11.1447
प्ल	-11.1448
ाष्ट्रिय	-11.1449
▁प्रकाशः	-11.1455
▁कृपा	-11.146
▁तावत्पर्यन्त	-11.1463
▁इत्यय	-11.1464
ोपम	-11.1466
निवारणाय	-11.1466
▁कथावस्तु	-11.1466
पक्षि	-11.1469
▁रम्य	-11.1469
▁सप्तदशे	-11.1469
▁उभयत	-11.147
तट	-11.1471
▁अतीत	-11.1472
परिषदि	-11.1473
▁आन्ध्रप्रदेशे	-11.1474
▁भद्रा	-11.1475
▁बोरसद	-11.1477
▁रोचक	-11.1478
▁भीषण	-11.1478
कीर्ण	-11.1478
▁सम्यग	-11.1478
▁आधारित	-11.148
मनः	-11.1481
▁1915	-11.1481
ग्री	-11.1483
फलानि	-11.1483
▁अधिकांश	-11.1486
ऋषे	-11.1487
वचनं	-11.149
काशी	-11.1491
▁स्नात	-11.1492
▁सञ्योजय	-11.1493
▁चौर	-11.1495
ङ्ख	-11.1495
योग्यं	-11.1497
निर्माता	-11.1498
▁प्रियं	-11.1498
ाचरणं	-11.1501
ाब्दे	-11.1503
▁स्वमत	-11.1506
वसा	-11.1507
▁गि	-11.151
पुरस्कारेण	-11.1512
▁व्याकरणं	-11.1515
ेषा	-11.1516
▁कुत	-11.152
प्लेग	-11.1521
▁पाण्डवानां	-11.1522
सौध	-11.1524
उपमण्डल	-11.1524
▁अभ	-11.1526
विमर्श	-11.1527
▁औष्ण्यं	-11.1528
▁नाडी	-11.153
चन्द्रस्य	-11.1533
article	-11.1535
▁स्तब्ध	-11.1535
▁शूल	-11.1536
▁उत्साहः	-11.1536
ीयानां	-11.1536
▁भ्रातु	-11.1537
▁अनुपस्थित	-11.1537
लेह	-11.1537
भूतं	-11.1538
फलक	-11.1538
▁सीतायाः	-11.154
▁निर्भय	-11.1541
टिन्	-11.1542
सौन्दर्यं	-11.1549
▁संविधाने	-11.1551
सांस्कृतिक	-11.1552
▁शिखराणि	-11.1552
▁निश्चितः	-11.1553
सज्जता	-11.1554
▁परिभाष	-11.1556
▁गृहाणि	-11.1557
▁झारखण्डराज्य	-11.1558
▁गणेशस्य	-11.1558
▁फुट	-11.1559
▁भारतवर्षस्य	-11.1559
▁प्रसन्ना	-11.1564
▁अभिव्यक्त	-11.157
▁स्वतन्त्रत	-11.1571
▁शिल	-11.1572
▁सिन्ध	-11.1573
है	-11.1575
चक्रवर्तिन	-11.1576
विदः	-11.1577
▁कार्येषु	-11.1579
मांस	-11.1579
▁हरे	-11.158
त्रयी	-11.1582
▁भक्त्या	-11.1583
निर्दिष्ट	-11.1584
अहम्	-11.1589
वन्दे	-11.1589
▁अधोभाग	-11.1591
▁सक्रियः	-11.1592
सहस्राधिक	-11.1592
केरे	-11.1592
▁जगदीशचन्द्रबोस	-11.1593
▁सहस्राम्रोद्यान	-11.1593
ार्थमेव	-11.1593
▁नश्यति	-11.1593
नमस्कार	-11.1594
समाजे	-11.1594
▁प्रतीत	-11.1594
▁1927	-11.1595
भावो	-11.1596
कार्यस्य	-11.1597
▁संसद	-11.1597
स्वपि	-11.1599
मोर	-11.1599
निरत	-11.16
ेन्द्रः	-11.16
▁सफलता	-11.1602
▁समर्थनम्	-11.1604
▁भास्कर	-11.1605
वर्षेषु	-11.1606
▁9.	-11.1606
सेवायाः	-11.1606
तडाग	-11.1608
▁राज्यसर्वकार	-11.1608
▁विराट्	-11.161
▁विस्फोटक	-11.1611
▁नन्दि	-11.1612
▁पदपाठ	-11.1614
▁उपचार	-11.1614
ळ्ळि	-11.1616
▁विचारं	-11.1617
▁खान्	-11.1617
▁इन्द्रियाणां	-11.1617
▁प्ला	-11.1617
▁प्रापन्	-11.1617
▁अयस	-11.1619
वधि	-11.162
चेतन	-11.1621
▁82.	-11.1621
्ता	-11.1622
▁वीणा	-11.1623
▁कार्यक्रमाः	-11.1627
ळे	-11.1627
▁प्रेषितः	-11.1628
▁तदनुसारेण	-11.1628
▁अङ्गम्	-11.163
रञ्जन	-11.1632
▁अण्ड	-11.1633
नृप	-11.1633
▁उन्नता	-11.1634
बार्	-11.1634
भरण	-11.1637
▁न्यायालये	-11.1641
बस	-11.1644
सङ्कल्प	-11.1647
▁क्षिप्त	-11.165
शिखा	-11.1651
▁प्रस्थ	-11.1651
▁विस्तरेण	-11.1651
▁आयोज्यते	-11.1652
▁व्यवस्थित	-11.1652
▁1901	-11.1653
▁देहत्याग	-11.1653
▁युक्ता	-11.1654
▁प्रविशन्ति	-11.1655
जनजाति	-11.1656
▁सोमेश्वर	-11.1657
▁नेत्रे	-11.166
क्षत	-11.1661
▁हिन्दीभाषायाः	-11.1664
रुद्र	-11.1665
▁उत्तीर्ण	-11.1667
चलन	-11.1667
संहितायां	-11.1669
▁विदुषा	-11.1669
विरचिता	-11.167
िष्यते	-11.1671
▁स्तुत	-11.1672
▁प्रलय	-11.1674
▁सुमित्र	-11.1675
वॉ	-11.1676
वर्षीया	-11.1676
▁भद्र	-11.1679
▁नायकाः	-11.1679
▁आकृष्टा	-11.168
▁ग्रन्थं	-11.168
▁ही	-11.1682
▁कन्नडसाहित्य	-11.1684
▁पूरित	-11.1684
▁तत्सर्व	-11.1686
पाठक	-11.1687
संवेदन	-11.1689
देशयोः	-11.169
▁स्थानमस्ति	-11.1693
▁सत्यस्य	-11.1696
▁2012	-11.1697
▁स्वस्मिन्	-11.1697
▁108	-11.1704
▁स्वागतं	-11.1705
▁स्वायत्त	-11.1706
▁आकाशे	-11.1706
▁कञ्चित्	-11.1709
▁मातङ्गिनी	-11.1709
▁आनेतु	-11.1709
▁उपर्युक्त	-11.1709
ज्ञापक	-11.171
▁देसाई	-11.171
कन्यया	-11.171
▁मनुष्याः	-11.1711
▁1955	-11.1711
▁1923	-11.1711
▁उपविष्ट	-11.1712
▁आह्वयन्ति	-11.1712
▁करुणा	-11.1713
▁सुग्रीव	-11.1713
देहली	-11.1713
द्रा	-11.1714
▁हरिहर	-11.1716
हीनः	-11.1717
▁86	-11.1719
▁समता	-11.172
पेय	-11.172
जप	-11.172
▁भार्या	-11.1721
▁विश्वासं	-11.1721
▁प्रवर्तकः	-11.1721
कारिणी	-11.1722
▁श्रीनिवास	-11.1724
प्रयास	-11.1726
▁महानगरम्	-11.1728
▁सियाङ्	-11.173
वस्त्राणि	-11.1731
ानुराग	-11.1732
▁टा	-11.1732
ist	-11.1733
▁प्रवाहः	-11.1733
ामीति	-11.1733
▁प्रक्षेपण	-11.1736
▁लव	-11.1736
▁परीक्षण	-11.1741
▁सञ्चालित	-11.1742
वत्स	-11.1742
▁कस्मिन्	-11.1743
▁पन्थ	-11.1744
ाग्रह	-11.1747
ll	-11.1748
▁प्रतिमाया	-11.175
केतु	-11.175
▁भेदाः	-11.1752
प्रशिक्षण	-11.1755
नन्तर	-11.1756
वधान	-11.1758
सदस्यानां	-11.1758
▁निन्द	-11.1758
रहसि	-11.176
ोपेत	-11.1763
▁सचिव	-11.1764
कुशलता	-11.1765
▁नैसर्गिक	-11.1768
▁कौन्तेय	-11.1768
▁उपजीविका	-11.1768
▁मूर्ख	-11.1768
व्यूह	-11.1768
प्राप्त्यनन्तर	-11.1769
▁उत्खनन	-11.1769
ुरु	-11.1769
चालुक्य	-11.1769
▁कृषिक्षेत्रे	-11.1769
▁श्रीज्ञान	-11.177
▁विग्रहराजः	-11.177
▁जीवति	-11.177
▁जन्मोत्सव	-11.1771
ाधिकारि	-11.1772
▁1916	-11.1772
सिरि	-11.1772
▁पूजयन्ति	-11.1773
▁प्रेषयति	-11.1774
द्रव	-11.1774
▁अनुच्छेद	-11.1775
▁स्थापितवन्तः	-11.1775
▁राजभवन	-11.1778
▁दुग्धं	-11.1778
▁स्वाभिमान	-11.1778
▁वर्धयति	-11.178
र्घ	-11.178
▁पदार्थानां	-11.178
▁1500	-11.1782
पीडित	-11.1782
▁महत्त्वपूर्णा	-11.1784
▁निश्चितं	-11.1785
▁अवान्तर	-11.1787
▁नीच	-11.1788
▁नियोज	-11.1794
▁द्वा	-11.1795
▁वेदाध्ययन	-11.1795
▁संशोधनकार्य	-11.1796
▁बन्धु	-11.1797
हिरण्य	-11.1799
निस्थान	-11.18
▁प्रकोष्ठ	-11.18
▁विद्यार्थी	-11.1804
ər	-11.1804
▁जिज्ञासा	-11.1805
▁निर्माणाय	-11.1805
राज्ञी	-11.1806
स्वर्ग	-11.1807
▁श्रेष्ठतम	-11.1807
▁अपमान	-11.1808
▁प्रस्थापितः	-11.1813
▁चतुः	-11.1817
▁कदलीफलं	-11.1819
▁मन्त्रे	-11.1821
▁छत्र	-11.1823
▁द्राविड	-11.1823
▁नेतृत्व	-11.1823
व्याधि	-11.1824
▁शास्त्रं	-11.1825
▁पशवः	-11.1827
▁लुङ्गल	-11.1827
▁जेम्स्	-11.1828
कक्ष्या	-11.1828
▁पार्थक्य	-11.1828
सिया	-11.1828
▁खाँ	-11.1829
▁1939	-11.1829
विवेचन	-11.183
▁भवामि	-11.1833
▁आद	-11.1834
योजयन्ति	-11.1834
▁प्रार्थितवान्	-11.1834
▁81	-11.1834
▁विहिता	-11.1835
▁बदरीनाथ	-11.1835
▁यवनाना	-11.1836
नागा	-11.1839
सस्यानि	-11.1839
▁भुव	-11.1841
राज्येषु	-11.1844
▁बालाः	-11.1846
▁मुद्ग	-11.1846
राजभिः	-11.1846
▁उपनिषत्सु	-11.1848
▁विनि	-11.1849
▁हस्ताक्षर	-11.1853
▁88	-11.1854
विरुद्धं	-11.1854
कर्तुः	-11.1855
▁सूर्यास्त	-11.1855
▁जनस्य	-11.1855
▁भावयन्ति	-11.1855
▁शक्या	-11.1856
दह	-11.1856
▁अदृश्य	-11.1857
सेवायां	-11.1858
▁अपूर्ण	-11.1858
▁विरोधे	-11.1858
नेशनल	-11.1863
▁भरुच	-11.1864
▁एकाग्र	-11.1865
प्रभु	-11.1868
धनु	-11.1869
खेडा	-11.1872
▁पार्	-11.1875
कृष्णः	-11.1876
▁कष्टं	-11.1876
▁उत्त	-11.1882
▁प्रशिक्षणं	-11.1885
▁परमात्मन	-11.1887
▁वर्धन्ते	-11.1887
▁निगम	-11.1888
्तुं	-11.1888
▁गृह्णन्ति	-11.1888
▁निम्नलिखित	-11.1888
▁120	-11.1888
▁विज्ञायते	-11.1889
▁1913	-11.189
▁विश्वप्रसिद्ध	-11.1891
▁कदम्ब	-11.1891
मस्जिद्	-11.1891
▁समग्रं	-11.1891
परीक्षण	-11.1892
▁रूस	-11.1892
▁समर	-11.1893
धारिण	-11.1893
▁राजप्रासाद	-11.1893
▁आरोपित	-11.1893
pe	-11.1893
सिंहासन	-11.1894
▁°	-11.1895
▁ग्रन्थोऽय	-11.1895
▁मही	-11.1896
▁इत्याख्याया	-11.1897
▁कालस्य	-11.1897
▁निमग्न	-11.1901
▁भोजराज	-11.1902
जलबन्ध	-11.1903
जनसङ्ख्या	-11.1903
▁नियुक्तिः	-11.1905
▁पूर्वोत्तर	-11.1906
▁चीनादेश	-11.1907
विधौ	-11.1908
मेका	-11.191
ोई	-11.191
▁वैयाकरण	-11.1913
बुल	-11.1913
मेकम्	-11.1914
▁आसक्त	-11.1915
▁किञ्चिद्	-11.1916
▁क्षेत्रफल	-11.1916
▁मलय	-11.1918
निष्ठया	-11.1919
▁एवेति	-11.1921
▁यक्षः	-11.1921
▁सिञ्चन	-11.1924
ीभूय	-11.1925
▁ऋक्	-11.1925
शिल्पानि	-11.1925
▁चित्रकला	-11.1932
महर्षिः	-11.1932
वङ्ग	-11.1934
न्यथा	-11.1938
▁जाम	-11.1941
▁सेतुः	-11.1942
▁युक्तं	-11.1946
▁कृत्रिम	-11.1947
▁अभ्यासं	-11.1947
▁नडियाद	-11.1947
▁1937	-11.1948
▁1971	-11.1949
▁अगच्छन्	-11.1949
णेन	-11.1949
▁सम्पाद्य	-11.195
उपत्यकाया	-11.1951
▁विधेय	-11.1951
▁शिलालेखः	-11.1953
वासुदेव	-11.1954
उच्च	-11.1955
टाटा	-11.196
▁विंशतितमे	-11.1961
वानप्रस्थ	-11.1962
सौन्दर्येण	-11.1966
मुपरि	-11.1969
ावसान	-11.197
एल	-11.197
सीताराम	-11.197
वैविध्यं	-11.1971
▁बन्धनं	-11.1971
नेशनल्	-11.1971
प्रसारण	-11.1972
विचाराणां	-11.1972
शैलप्रस्थः	-11.1975
▁दर्शनेन	-11.1976
जीविनः	-11.1976
पिता	-11.1978
▁निष्कासित	-11.1983
▁आप्त	-11.1983
▁तीर्थस्थल	-11.1984
▁ज्ञातः	-11.1984
00,000	-11.1988
▁आमटेवर्य	-11.1992
▁भीता	-11.1992
▁भौतशास्त्र	-11.1993
▁मुसल्मान	-11.1993
▁खण्डित	-11.1994
रवा	-11.1996
▁प्रभव	-11.1997
प्रदेशयोः	-11.2
कोशः	-11.2
▁संशोधित	-11.2001
▁तदीया	-11.2004
ीकृतवान्	-11.2005
▁मापन	-11.2007
▁द्रौपदी	-11.2007
▁सौभाग्य	-11.2007
▁अक्षांश	-11.2008
▁मीमांसाया	-11.2009
▁देशसेवायै	-11.201
ार्पण	-11.2012
▁उपनयन	-11.2013
▁संयुक्तराष्ट्र	-11.2015
राज्येन	-11.2015
अग्नि	-11.2015
▁बहुप्रसिद्ध	-11.2016
▁श्रीधर	-11.2017
▁व्याघ्राः	-11.202
▁देशविदेश	-11.202
▁उत्साहपूर्वक	-11.2026
▁मन्तव्य	-11.2026
▁जगद्देव	-11.2029
मन्त्रेषु	-11.2029
▁प्रकाशितः	-11.2034
वरण	-11.2034
▁विकल्प	-11.2035
सिद्धान्तानां	-11.2035
▁राष्ट्रध्वज	-11.2035
▁बहू	-11.2039
वत्सु	-11.204
▁पिब	-11.2041
▁तञ्जावूरु	-11.2042
▁भागद्वय	-11.2043
साधनानि	-11.2047
▁द्वाविंशतितम	-11.2048
▁चेन्नम्मा	-11.205
ाधिकरण	-11.2052
▁समुप	-11.2052
राणी	-11.2052
ेशन्	-11.2053
▁भरतस्य	-11.2054
विचारान्	-11.2054
ऽसौ	-11.2054
कुश	-11.2056
▁कारितः	-11.2059
जनित	-11.206
▁उत्पन्नः	-11.2062
▁पाकिस्थानदेश	-11.2064
▁अण्डमान	-11.2065
▁निवेदित	-11.2066
▁प्रयोगशाला	-11.2067
श्चासीत्	-11.2067
▁पाश्चात्त्य	-11.2067
▁शाकम्भर्या	-11.2067
कासरकोट्	-11.2067
▁1982	-11.2067
▁जनवरिमास	-11.2067
▁देवनागरी	-11.2067
▁विरुध्य	-11.2067
php	-11.2067
दर्भ	-11.2068
सेल	-11.2069
▁ईटानगर	-11.2069
▁1959	-11.2069
▁बेङ्गळूरुनगर	-11.2071
सेवां	-11.2072
▁स्नातकोत्तरपदवी	-11.2072
प्रणीता	-11.2072
गणराज्य	-11.2074
वैभवं	-11.2077
▁किलोमीटर	-11.2078
▁पठितवान्	-11.2081
साधक	-11.2081
▁निवृत्तः	-11.2081
▁असमिया	-11.2084
▁राष्ट्रपतिशासन	-11.2084
▁आरभ्यते	-11.2085
महाभागः	-11.2085
▁मन्यमान	-11.2086
▁यच्छ	-11.2088
सदृशः	-11.2089
्यादि	-11.209
वरोध	-11.209
▁सूक्तानि	-11.2093
▁अमरावती	-11.2095
्यनुसारं	-11.2096
ाङ्गना	-11.2098
▁कुर	-11.2098
▁विशालः	-11.21
▁पत्रम्	-11.2103
रात्रि	-11.2109
▁परिषद्	-11.2111
यानानां	-11.2113
▁ब्राह्मणानां	-11.2114
▁षण्	-11.2118
▁चित्रं	-11.2119
▁भक्तानां	-11.212
हण	-11.2122
▁विरह	-11.2125
▁युनिवर्सिटी	-11.2126
व्यवस्थ	-11.2126
▁उद्घाटन	-11.2128
▁वाराणस्या	-11.2128
▁प्रजाप्रभुत्व	-11.2129
▁इत्याद्य	-11.213
▁सोन्दा	-11.213
▁रत्यादि	-11.213
▁1953	-11.2131
पेक्षा	-11.2133
तमवर्ष	-11.2134
दृक्	-11.2134
▁विजयं	-11.2137
▁भीमः	-11.2137
▁जैव	-11.2138
▁भूमिं	-11.2139
▁गौर	-11.2141
शुक्ल	-11.2143
▁एकतामूर्तिः	-11.2143
▁पुष्ट	-11.2144
▁जीवानां	-11.2145
▁निर्मापितवान्	-11.2147
▁प्रचारं	-11.2149
▁प्रकाराः	-11.2149
▁एकवार	-11.2151
▁अन्यान्	-11.2153
▁41	-11.2154
▁जनतापक्ष	-11.2155
ङ्ग्ल	-11.2156
जीवि	-11.2156
▁महानगरं	-11.2158
चारिण	-11.2165
।।'	-11.2165
चर्	-11.2165
▁प्रदत्ताः	-11.2167
▁भावनगर	-11.2167
▁जनयन्ति	-11.2168
अल्	-11.2168
गिरी	-11.2169
बोधक	-11.2172
अल	-11.2175
▁आवयो	-11.2179
साई	-11.2179
▁रुचि	-11.2181
सूत्राणां	-11.2181
बुद्ध्या	-11.2182
▁इक्षुः	-11.2182
साहाय्य	-11.2183
▁रायल्	-11.2183
▁तिरुवण्णामलै	-11.219
अफगान	-11.219
्यामि	-11.219
फतेहगढ	-11.219
▁ददातु	-11.2192
▁विजयी	-11.2193
▁मतस्य	-11.2193
निवारण	-11.2194
▁लू	-11.2194
संहित	-11.2196
▁आयोग	-11.2197
▁बिजापुरमण्डल	-11.2198
▁आचरितवन्तः	-11.2198
▁सम्भवन्ति	-11.2201
प्रदा	-11.2205
▁मालव	-11.2205
पोताश्रय	-11.2206
▁द्वाभ्या	-11.2206
आर्थिक	-11.2207
ाक्रमण	-11.2208
जैनधर्म	-11.2208
स्थानां	-11.2208
▁देवालये	-11.2209
▁यस्मात्	-11.2209
▁भगवद	-11.221
▁कन्नडभाषायाः	-11.221
▁अमु	-11.2211
▁रमणीयं	-11.2215
▁कार्यरत	-11.2216
एकं	-11.2218
▁अस्मभ्य	-11.2218
ानपि	-11.2219
▁मुहम्मद्	-11.222
bh	-11.2221
▁महाराष्ट्रस्य	-11.2222
▁आसीद	-11.2223
▁सीमित	-11.2225
▁राज्यपालः	-11.2227
परिषद	-11.2227
सम्पत्तेः	-11.2228
लर्	-11.223
▁वित्त	-11.2232
तृष्णा	-11.2233
▁अधिकरण	-11.2233
कोला	-11.2233
खो	-11.2234
▁तामस	-11.2239
▁व्रज	-11.2239
आत्म	-11.224
वाल्	-11.224
▁विफल	-11.2241
▁स्वकीयं	-11.2242
सक्तः	-11.2243
▁विभज्य	-11.2246
▁सफला	-11.2247
मेद	-11.2247
ग्रस्तः	-11.2247
▁चेर	-11.2249
▁याचना	-11.2251
▁पारिवारिक	-11.2251
▁श्रीकोविन्द	-11.2251
▁अघोषयत्	-11.2252
▁दिलीप	-11.2252
▁सुविधिनाथ	-11.2252
▁इसरो	-11.2252
प्लुत	-11.2252
▁वशीकृत	-11.2252
तादृश	-11.2253
▁जान्	-11.2254
▁तदवसरे	-11.2254
▁1970	-11.2254
▁श्रमिक	-11.2257
▁महमद	-11.2258
▁खल	-11.2258
▁इत्थ	-11.2259
▁कुटुम्बे	-11.226
▁आनन्दं	-11.2261
भारोत्तोलन	-11.2261
ब्रह्मण	-11.2262
प्राणायाम	-11.2262
▁हेतुः	-11.2262
तिरु	-11.2267
▁माम	-11.2267
▁स्पष्टमेव	-11.2269
▁विहितः	-11.227
अन्तरिक्ष	-11.2271
▁भवत्	-11.2271
▁वाक्येन	-11.2271
▁चैत्रमास	-11.2279
▁प्रिया	-11.2279
▁उमर	-11.2287
षो	-11.2288
▁चतुष्	-11.2289
हिंस	-11.229
वृत्य	-11.2291
▁विचरन्	-11.2291
▁इत्येक	-11.2291
▁भयं	-11.2293
▁चिन्तामणि	-11.2293
▁सरहिन्द	-11.2304
प्रशासक	-11.2306
▁एक्	-11.2308
▁विवादः	-11.231
ेश्वरदेवालयः	-11.2313
▁जलबाष्प	-11.2314
▁नवेम्बर्	-11.2314
▁इतस्ततः	-11.2314
▁सुपार्श्वनाथ	-11.2314
▁मुनयः	-11.2314
▁याज्ञिक	-11.2314
▁साइहा	-11.2314
▁पद्मावत्या	-11.2314
▁जोरहाट	-11.2314
▁अवहन्	-11.2314
▁आत्मसमर्पण	-11.2314
▁कालिदासेन	-11.2315
▁निर्दिशति	-11.2315
▁1933	-11.2316
▁पिङ्गल	-11.2318
▁1192	-11.2318
▁स्वामिना	-11.2319
तन्त्रज्ञान	-11.2319
वाच्य	-11.232
▁ताडन	-11.2321
▁समूहे	-11.2322
बायी	-11.2326
पुरुषेण	-11.2326
करणस्य	-11.2327
▁पुराणे	-11.2329
▁इस्लामीय	-11.2332
निराकरण	-11.2332
निरोध	-11.2332
साह	-11.2333
काश्मीर	-11.2335
शासकस्य	-11.2336
▁न्यूनतम	-11.2336
▁कार्याणां	-11.2337
वंशजैः	-11.2341
▁प्रयोजनं	-11.2342
▁चर्चित	-11.2345
▁कोमल	-11.2346
▁प्रतिपादक	-11.2348
▁श्रीरङ्ग	-11.2348
संवर्धन	-11.2349
▁उत्साहेन	-11.2349
ावलम्बि	-11.2349
▁बोधन	-11.235
▁समर्पण	-11.235
▁प्या	-11.2352
▁फीट	-11.2352
▁चित्रा	-11.2353
▁जपान्	-11.2354
▁हैन्दव	-11.2354
पोषण	-11.2356
▁प्राप्न	-11.2358
▁केन्द्रस्थान	-11.236
वल्ल	-11.2361
सिन्धु	-11.2363
साम्राज्यम्	-11.2363
▁11.	-11.2367
सन्निध	-11.2367
गुड	-11.2367
▁बारा	-11.2368
विजयः	-11.237
▁दृष्टाः	-11.237
न्दर	-11.237
▁अनुभवन्	-11.2371
न्यु	-11.2372
▁आत्मारामस्य	-11.2372
▁सहकारि	-11.2373
▁औचित्य	-11.2376
▁भ्रष्टाचार	-11.2376
शालायाम्	-11.2376
▁असमर्थाः	-11.2377
site	-11.2377
▁अमरकण्टक	-11.2377
▁गृहीतः	-11.2378
▁निमज्ज	-11.238
▁उत्तरार्ध	-11.238
नगराणि	-11.2382
▁पतिः	-11.2382
▁सूत्रधार	-11.2382
▁आदिष्टवान्	-11.2383
▁विदर्भ	-11.2384
भारतदेशे	-11.2384
▁सप्तविंशति	-11.2388
▁मुद्रित	-11.2389
▁लीना	-11.2391
पण्डितः	-11.2392
▁चायं	-11.2393
▁अश्वघोष	-11.2394
मलयाळ	-11.2396
ज्ञानपीठप्रशस्ति	-11.2397
▁आयाति	-11.2399
▁खगोल	-11.2402
स्थायिभाव	-11.2403
बुद्धेः	-11.2406
▁प्रसव	-11.2407
अस्माक	-11.2407
▁आसक्ति	-11.2409
▁लोहित	-11.2409
लेण्ड	-11.241
राजकीय	-11.241
▁कौशेय	-11.2411
▁देशभक्ति	-11.2413
▁गर्भकाल	-11.2414
तीत	-11.242
एस	-11.2424
▁दारु	-11.2425
▁राजकोट	-11.2428
मात्रात्मकं	-11.2429
ात्मकम्	-11.2429
▁शतमान	-11.243
▁यशस	-11.2432
▁निर्मीय	-11.2434
▁जागृत	-11.2434
▁गृहेषु	-11.2435
▁ऊर्जा	-11.2435
करणाय	-11.2436
ab	-11.2436
पाञ्चाल	-11.2439
▁संन्यासी	-11.2439
प्रातिशाख्य	-11.2439
▁दौलतसिंह	-11.2439
▁प्रवहन्त्य	-11.2439
▁मध्याह्ने	-11.2439
▁राबर्ट्	-11.2439
▁शृणु	-11.2439
▁शौनक	-11.2439
▁मस्तिष्क	-11.2439
▁परीक्षित	-11.2439
ेयम्	-11.244
▁1986	-11.2441
भाषाया	-11.2443
▁विश	-11.2444
▁देशभक्त्याः	-11.2444
iit	-11.2445
▁अर्पित	-11.2446
▁राधा	-11.2446
▁रोगाः	-11.2447
▁कियत्	-11.245
▁सम्माननं	-11.2451
्रियन्ते	-11.2452
▁पीडित	-11.2455
▁तावता	-11.2455
▁समाप्त्यनन्तर	-11.2455
▁उत्तरभारत	-11.2458
क्रान्तिकारिण	-11.2459
▁काचन	-11.2459
▁साफल्य	-11.246
▁आरूढः	-11.2461
साधुभिः	-11.2465
▁बारडोलीमण्डल	-11.2466
चिन्तय	-11.247
▁लेखितु	-11.2471
प्रयोगः	-11.2473
्युत्तर	-11.2475
वृत्ते	-11.2476
ष्ट्र	-11.2477
▁पम्प	-11.248
▁अध्यक्षत्व	-11.2485
▁गण्ड	-11.2485
▁किञ्चिदप	-11.2486
ादिविषय	-11.2487
▁सिद्धपुर	-11.2488
किमी	-11.249
▁शिष्ट	-11.2491
▁मुम्बै	-11.2492
▁कान्त	-11.2492
प्रसङ्गेन	-11.2492
▁कित्तूरु	-11.2493
▁कांश्च	-11.2493
▁आवश्यकः	-11.2494
डर्	-11.2495
भाण्ड	-11.2498
▁सन्देशः	-11.2498
▁नदीषु	-11.2499
विद्याभ्यास	-11.25
ौद्योगिक	-11.2501
▁उन्मत्त	-11.2502
▁प्रवहन्ती	-11.2502
▁जागतिक	-11.2502
▁अजितनाथ	-11.2502
▁यातायात	-11.2502
▁मणिबेन	-11.2503
श्याम	-11.2504
▁कथानक	-11.2504
▁1934	-11.2505
▁आदिवासिनः	-11.2506
▁प्रेक्षणीय	-11.2508
तर्पण	-11.2509
▁आङ्ग्लेयाः	-11.2509
▁आरक्षित	-11.2509
▁2002	-11.2511
▁शिक्षायाः	-11.2513
स्प	-11.2513
▁श्रीकृष्णेन	-11.2518
▁निसर्ग	-11.2519
▁श्रौत	-11.2519
▁सम्बद्धः	-11.252
▁मीरायाः	-11.2524
कलाकृतयः	-11.2526
▁अवशेष	-11.2527
▁पादे	-11.2528
स्थस्य	-11.2529
दिसम्बर	-11.2531
▁अशोकः	-11.2531
▁राज्ञे	-11.2534
अर्थ	-11.2536
▁ऊह	-11.254
▁स्वागत	-11.2543
▁कैवल्य	-11.2547
▁स्थापितानि	-11.2548
परिषदः	-11.2548
▁विचारधारा	-11.2548
ुपरि	-11.255
▁सामूहिक	-11.255
▁अन्विष्य	-11.2551
▁चरक	-11.2551
▁प्रासादस्य	-11.2552
▁हानि	-11.2555
▁इन्द्रेण	-11.2558
▁वाक्यानि	-11.2559
▁प्राचुर्य	-11.2561
▁जपान	-11.2561
शब्दस्यार्थ	-11.2562
▁पाण्ड्य	-11.2564
ाशी	-11.2565
▁महानुभाव	-11.2565
सूत्रेषु	-11.2566
▁निर्वहति	-11.2566
▁यल्लापुर	-11.2566
▁रायचूरु	-11.2566
▁सम्पूर्णस्य	-11.2566
▁देहे	-11.2567
▁स्वामिनारायण	-11.2567
▁अन्तर्जाल	-11.2567
▁अपिच	-11.2568
▁गिरिधर	-11.2569
▁1979	-11.2569
पत्रे	-11.2569
ेष्वेव	-11.2571
▁यौ	-11.2572
▁बाहु	-11.2573
▁उद्युक्तः	-11.2573
▁2013	-11.2573
कया	-11.2573
gov	-11.2574
▁सिकता	-11.2574
िणो	-11.2576
लक्षणम्	-11.2578
▁मैसूरुनगर	-11.2579
▁साधकस्य	-11.2583
▁आङ्ग्लेयाना	-11.2585
ऋतौ	-11.2586
पत्तनं	-11.2589
प्रभो	-11.259
▁जलक्रीडा	-11.2592
▁अनुभवन्ति	-11.2592
साहित्यं	-11.2593
साधु	-11.2595
▁–“	-11.2596
पृथ्वीराज	-11.2597
▁शान्तिनाथ	-11.2599
तिशय	-11.26
येव	-11.26
▁कस्मिँश्चि	-11.26
प्रदेशीय	-11.2601
स्वामिना	-11.2601
गृहात्	-11.2603
▁महनीय	-11.2604
श्रेण	-11.2607
यष्टि	-11.2608
पन्थ	-11.2612
र्नि	-11.2614
▁प्रवृत्ते	-11.2615
लियो	-11.2615
▁निजाम	-11.2616
▁संस्करण	-11.2618
नामानि	-11.2619
▁अकस्मात	-11.2619
प्रहार	-11.2621
▁निरोध	-11.2621
▁सत्याग्रहस्य	-11.2622
▁आर्या	-11.2624
वस्तुनः	-11.2626
न्तर्गत	-11.2628
त्वञ्च	-11.2628
▁रेलमार्ग	-11.2629
books	-11.2629
▁अङ्गानि	-11.2629
▁कान्यकुब्ज	-11.263
▁नेच्छति	-11.263
▁श्रीसत्यजित	-11.263
▁आविष्कृत	-11.263
▁ताताचार्य	-11.263
▁गौतमबुद्ध	-11.2631
▁महान	-11.2633
शास्त्रीय	-11.2633
▁बेदी	-11.2634
सोदर	-11.2635
▁पुनर्जन्म	-11.2635
षट्	-11.2636
▁प्रश्नस्य	-11.2638
▁अभिलेख	-11.264
▁क्रीडन्ति	-11.2641
हिल	-11.2642
ोपाधि	-11.2645
दातु	-11.2646
▁प्रधानमन्त्रिणः	-11.2648
▁शताब्दे	-11.2648
▁शिरस	-11.2649
प्रकारेण	-11.265
▁ग्रहः	-11.265
दानीं	-11.2651
▁विनियोग	-11.2654
ार्थक	-11.2654
▁प्रतिफल	-11.2659
▁पाश	-11.266
हळ्ळि	-11.2661
कारागार	-11.2664
पश्चिमदिशि	-11.2665
मन्त्रित्वेन	-11.2666
▁अशक्त	-11.2667
▁कर्मकर	-11.2667
▁शील	-11.2668
▁बीजानि	-11.2668
▁कश्चिद	-11.2669
निर्वाचन	-11.267
▁विद्यु	-11.2673
ly	-11.2673
क्या	-11.2673
पर्याय	-11.2673
विहित	-11.2675
▁जटा	-11.2677
▁तच्छ	-11.2679
मनुष्य	-11.2681
ानामेव	-11.2682
मुपस्थाप	-11.2683
प्रदानं	-11.2685
▁शरीरिण	-11.2687
▁कान्ति	-11.2689
न्यून	-11.2689
नान्द	-11.269
▁उक्ताः	-11.269
▁वादन	-11.2691
▁साक्षि	-11.2692
▁महेश्वर	-11.2692
▁प्रथमम्	-11.2692
पराध	-11.2694
▁चिदंबर	-11.2695
▁पादचारण	-11.2695
▁ऐदम्प्र	-11.2695
समारोह	-11.2695
▁कदलीफल	-11.2696
ीचकार	-11.2696
मकुर्वन्	-11.2697
▁1914	-11.2698
मासाभ्यान्तर	-11.2699
ोपनिषत्	-11.27
यामपि	-11.27
▁ज्या	-11.2701
▁मधुरै	-11.2703
▁केदार	-11.2705
सेण्ट्	-11.2706
▁भल्ल	-11.2706
▁पाठक	-11.2707
▁भारतीयसंविधाने	-11.2709
चौर्य	-11.2711
▁प्रतिनिधिः	-11.2711
▁मद्रास्	-11.2711
साम्न	-11.2715
▁काला	-11.2716
▁चत्वारो	-11.2716
▁सन्तुष्टा	-11.2719
▁जयन्त	-11.272
सेल्	-11.272
▁आराध्य	-11.272
▁महाद्वीपे	-11.2723
▁जर्मन्	-11.2726
शासकाः	-11.2729
▁टै	-11.2731
धातोः	-11.2732
द्वयेन	-11.2733
▁निर्वाचित	-11.2734
▁अरविन्द	-11.2735
▁रानी	-11.2738
▁सूत	-11.2742
समुदायस्य	-11.2742
मण्डलेषु	-11.2746
▁क्षमता	-11.2746
▁देशेभ्यः	-11.2746
ज्ञातो	-11.2747
▁बहि	-11.2747
▁एकता	-11.2749
दर्शिन	-11.2751
▁त्रिवार	-11.2753
▁स्वप्ने	-11.2755
▁शाल	-11.2759
▁व्रात्य	-11.276
मिथुन	-11.276
▁तूर्क	-11.276
▁कालात्	-11.2761
▁हिन्दीभाषया	-11.2762
रोमाञ्च	-11.2762
योजनाया	-11.2762
▁दादा	-11.2762
the	-11.2764
सन्धान	-11.2764
▁भगतसिंहस्य	-11.2764
प्रवचन	-11.2765
▁निर्यात	-11.2765
▁गिरनारपर्वत	-11.2765
▁संस्कृतभाषायाः	-11.2766
▁इत्येतस्मिन्	-11.2767
▁रचितं	-11.2767
नेह	-11.2772
दारु	-11.2773
▁भवानी	-11.2774
पन्त	-11.2775
▁मुद्राः	-11.2775
▁मन्त्रिमण्डल	-11.2779
▁79.	-11.278
▁कार्यालये	-11.2782
▁प्रत्यागमन	-11.2783
▁दण्डी	-11.2786
र्नाम	-11.2786
हर्षवर्धन	-11.2787
सर्ज	-11.2788
विनोद	-11.279
▁यापित	-11.2792
रिस्	-11.2796
च्छाया	-11.2796
नृत्यम्	-11.2796
▁ब्रह्मसूत्र	-11.28
▁वर्तमानकाले	-11.2804
▁हन्तु	-11.2805
वन्दन	-11.2807
▁छत्तीसगढराज्य	-11.2807
्येते	-11.2808
सन्दर्भे	-11.2809
▁रायपुर	-11.2812
▁तपस	-11.2813
▁एतन्नगर	-11.2814
▁संवर	-11.2818
▁पर्यन्त	-11.2818
▁बर्मा	-11.2818
▁ततोऽ	-11.2821
▁फो	-11.2822
समुद्रकुक्ष	-11.2822
वाहक	-11.2825
लघ्व	-11.2825
कौमुदी	-11.2825
▁कर्मेन्द्रियाणि	-11.2825
with	-11.2825
▁काश्यप	-11.2825
▁साधवः	-11.2825
▁उपाध्यक्ष	-11.2827
▁कवेर	-11.2827
▁भविष्यतीति	-11.2827
गरुड	-11.2829
▁समुद्रगुप्त	-11.2829
▁अम्बाला	-11.283
100	-11.283
महाराजः	-11.283
▁लघुपर्वत	-11.283
र्थे	-11.283
▁अासीत्	-11.2831
ोद्यानं	-11.2831
▁करो	-11.2833
साम्राज्ये	-11.2834
▁उद्भूत	-11.2834
योज्य	-11.2835
▁अनुकरण	-11.2835
मौल्य	-11.2838
ाख्यस्य	-11.2839
▁दोषा	-11.2839
▁ताम्	-11.284
▁?"	-11.2846
▁विशेषण	-11.285
▁व्यपदेश	-11.2852
▁एकान्त	-11.2854
ाऽऽ	-11.2855
महाविद्यालयात्	-11.2857
▁हन्त	-11.2857
▁द्वीपः	-11.2862
वल्या	-11.2867
देशभक्त	-11.2867
▁आरूढ	-11.2868
व्यवस्थायां	-11.2868
ृणा	-11.2868
वित्	-11.2869
▁तण्डुलाः	-11.2869
प्रभावात्	-11.2872
▁पत्तनं	-11.2874
▁वैद्यकीय	-11.2874
▁विकासे	-11.2876
▁योगिन	-11.2876
विराम	-11.2876
▁प्रतिपादिताः	-11.2877
आनन्द	-11.2879
मवाप	-11.2879
▁पच	-11.2882
▁गिरिजन	-11.2883
त्वाच्च	-11.2885
▁मण्डलमस्ति	-11.2888
ाक्षराणि	-11.2888
▁निदर्शन	-11.2889
आन्दोलन	-11.2889
्रे	-11.2891
पद्धतेः	-11.2891
▁बाष्प	-11.2891
कश्मीर	-11.2891
▁रौद्र	-11.2891
go	-11.2891
गोपीनाथ	-11.2891
वृध्द	-11.2891
▁बच्चन	-11.2892
▁स्वरुप	-11.2892
▁आनन्दम्	-11.2893
▁साधनानि	-11.2894
▁सन्ध्या	-11.2896
▁कामपि	-11.2896
▁काव्यालङ्कार	-11.2899
▁2015	-11.2899
▁अनुग्रह	-11.2899
▁उष्णजल	-11.2899
▁तन्न	-11.2899
▁अनुगुणं	-11.2899
▁महात्मान	-11.29
समित्या	-11.29
जन्तु	-11.2903
▁फाल्गुन	-11.2903
▁निर्माणकार्य	-11.2905
मात्राया	-11.2905
▁अवसरं	-11.2907
वदत्	-11.2908
▁कथनमस्ति	-11.2909
▁शूद्रक	-11.291
▁अर्णोराज	-11.291
समर्थन	-11.291
▁स्वराज	-11.2911
▁परिमिता	-11.2912
▁चण्ड	-11.2912
▁रताः	-11.2914
कारावासे	-11.2915
▁केचिद	-11.2917
▁वर्णानां	-11.2918
नील	-11.2919
▁दर्पण	-11.2921
ाग्रे	-11.2922
▁नित्यम्	-11.2922
▁आधिक्यं	-11.2924
रूप्यकाणां	-11.2924
परिणय	-11.2925
हारी	-11.2926
▁निर्मापितः	-11.2928
▁एकैकस्य	-11.293
▁मरीचिका	-11.2932
▁रक्तवर्ण	-11.2932
▁रोगिणा	-11.2932
▁मुग्धाः	-11.2933
प्रमाणपत्र	-11.2934
▁संयोज्य	-11.2935
गोविन्द	-11.2935
मात्म	-11.2936
परिमिते	-11.2937
क्रीडालुः	-11.2937
ry	-11.2941
▁सुखद	-11.2944
▁चासीत्	-11.2945
वैर	-11.2945
परिसर	-11.2947
कोल्हापुर	-11.2948
▁अदृष्ट	-11.295
परिसरः	-11.2952
▁पूग	-11.2955
ष्टादश	-11.2955
▁उज्जयिन्या	-11.2957
▁अचिन्तयत्	-11.2957
▁यापयति	-11.2957
▁कटि	-11.2957
▁कतिचन	-11.2958
▁सस्यशास्त्रीय	-11.2958
▁यवनसैनिक	-11.2958
▁धनञ्जय	-11.2958
▁भाषणे	-11.2958
▁उर्दू	-11.2958
▁आकाशवाणी	-11.2958
ालम्बन	-11.2959
▁अक्बर	-11.2959
राज्यात्	-11.2959
▁भूगर्भ	-11.296
विद्यापीठस्य	-11.296
दशलक्ष	-11.2962
▁बाधा	-11.2962
▁प्रकाशिता	-11.2962
▁कुरुतः	-11.2969
▁प्रभवन्ति	-11.2969
▁भवितव्य	-11.2971
आई	-11.2971
साक्षात्कार	-11.2971
▁चर्चाया	-11.2974
▁नेतु	-11.2976
व्यवहारः	-11.2978
▁अहोम	-11.2979
भारतदेशस्य	-11.2983
▁अहमेव	-11.2986
▁स्वकार्य	-11.2987
ोऽस्य	-11.2987
तॄणां	-11.2992
▁निरूपितम्	-11.2993
▁गया	-11.2994
निर्म	-11.2994
▁द्विज	-11.2995
सीत्	-11.2995
▁लुप्त	-11.2998
▁राजमार्ग	-11.2998
▁यावद्	-11.2998
▁साङ्ख्ययोग	-11.3
▁कोलारमण्डल	-11.3
▁रतः	-11.3
पट्टण	-11.3001
पञ्जाब	-11.3003
▁राजगुरो	-11.3005
▁राज्यैः	-11.3005
▁रोमन	-11.3006
▁रास	-11.3008
▁भावे	-11.3009
▁ब्रह्मणा	-11.301
▁गुरुगोविन्द	-11.3012
▁प्रार्थयत	-11.3013
सम्बद्धानां	-11.3015
वायुः	-11.3019
मेण्ट्	-11.302
ाभिव्यक्त	-11.3022
▁पुनलूर्	-11.3024
▁शत्रूणां	-11.3024
▁उच्चन्यायालयः	-11.3024
▁निरूपयति	-11.3024
▁अग्रगण्य	-11.3024
▁ह्रास	-11.3024
▁1969	-11.3024
rieve	-11.3024
▁यक्षगान	-11.3024
▁आयोज्यन्ते	-11.3024
▁आसम्	-11.3025
▁अस्तीति	-11.3028
▁वास्तुशिल्प	-11.3028
ाख्यं	-11.303
▁स्वच्छता	-11.3031
चरणम्	-11.3031
कक्ष	-11.3032
▁एड	-11.3033
▁प्रकटयति	-11.3033
ts	-11.3034
ुत्सवः	-11.3034
▁स्थितिकाल	-11.3036
▁वादनतः	-11.3039
▁आराधना	-11.3039
सम्मेलने	-11.3039
धात	-11.304
▁मूढ	-11.3041
▁तञ्जावूरुमण्डल	-11.3046
▁अट्ट	-11.3049
परक	-11.3049
▁19.	-11.3049
▁गणेशः	-11.305
वर्तते	-11.3051
पार्	-11.3053
▁याति	-11.3055
▁स्थानस्य	-11.3056
▁सामर्थ्यं	-11.3056
डॉ	-11.3057
▁श्रोत्र	-11.3057
सभ्यता	-11.3057
▁In	-11.3057
शिल्पकला	-11.3059
▁उपदेशः	-11.306
▁वायुमण्डलस्य	-11.3063
▁कुमुद	-11.3067
▁मुस्लिमजन	-11.3067
▁पाण्डुरङ्ग	-11.3067
▁निवसन्त	-11.3068
न्ता	-11.3073
गद्य	-11.3074
tr	-11.3074
भौतिकी	-11.3079
इण्डिया	-11.308
▁प्रदत्तानि	-11.3082
ब्या	-11.3084
भगवान्	-11.3085
हुत	-11.3088
▁चातुर्वर्ण्य	-11.3091
▁सङ्गरूर	-11.3091
▁मेधा	-11.3091
▁बनवासी	-11.3091
▁आचार्यस्य	-11.3092
▁सततम्	-11.3092
▁लक्ष्मीबाई	-11.3093
▁व्याकरणशास्त्र	-11.3094
▁शबर	-11.3094
ान्तिम	-11.3098
द्रोह	-11.3098
श्रीमद्भगवद्गीता	-11.3102
▁छन्दसा	-11.3102
खण्डन	-11.3103
▁भास्कराचार्य	-11.3104
कुमारसम्भव	-11.3105
▁उन्न	-11.3106
ापण	-11.3111
किरीट	-11.3112
राष्ट्रीय	-11.3113
गार्	-11.3114
▁रक्षति	-11.3114
▁पाठ्य	-11.3116
▁म्लेच्छ	-11.3117
अमरनाथ	-11.3117
कोल	-11.3118
▁रूप्यकाणि	-11.312
▁भारतवर्ष	-11.3121
ोत्तरम्	-11.3122
▁उत्सवेषु	-11.3122
▁मालवीय	-11.3123
▁श्लेष	-11.3123
सञ्चय	-11.3127
▁चन्द्रशेखरः	-11.3127
र्जी	-11.3128
▁900	-11.3132
सभाया	-11.3133
▁सहभाग	-11.3135
वेध	-11.3138
▁माध्यमिक	-11.3139
▁आचार्याः	-11.3143
▁तडागाः	-11.315
निवृत्ति	-11.315
प्रामाण्य	-11.3154
▁पातु	-11.3158
▁अरियलूर	-11.3158
▁काल्पनिक	-11.3158
▁आख्यान	-11.3159
▁अजयमेरोः	-11.3159
ान्येव	-11.3161
▁1922	-11.3161
▁1929	-11.3161
▁अवगन्तु	-11.3162
▁मारुत	-11.3163
गोपुर	-11.3163
▁षष्ठ्या	-11.3164
केन्द्रेषु	-11.3165
▁संक्षिप्त	-11.3165
▁पक्व	-11.3165
▁एकाकिन	-11.3166
▁बहवो	-11.3166
निगम	-11.3166
▁आस्थाने	-11.3166
▁चिक्क	-11.3169
ञ	-11.3174
▁कमठ	-11.3175
▁मेघनादेन	-11.3175
▁भर	-11.3175
▁करिष्य	-11.3179
▁द्वाविंशति	-11.318
▁विश्वसित	-11.3185
निर्णयः	-11.3186
न्दु	-11.3187
▁प्रेषण	-11.3187
▁छल	-11.3188
ब्रु	-11.3191
▁अष्टादशे	-11.3191
सद्गुण	-11.3191
▁प्रत्येकस्य	-11.3193
परिसरे	-11.3195
सफलतायाः	-11.3201
▁चित्तं	-11.3201
प्रेत	-11.3201
भुव	-11.3204
ोत्स	-11.3204
▁कार्यक्रमे	-11.3209
▁अधर्म	-11.3211
मुद्रण	-11.3211
वीक्षण	-11.3211
झु	-11.3211
प्रकोष्ठ	-11.3213
आङ्ग्ल	-11.3214
▁वृत्तं	-11.3216
दिल	-11.3218
सुवर्ण	-11.3219
▁धन्य	-11.3221
▁लक्ष्मणः	-11.3222
विपणि	-11.3223
▁सावित्री	-11.3226
▁अयाचत	-11.3226
▁अग्निहोत्र	-11.3227
▁कैश्चित्	-11.3227
▁1/2	-11.3227
मेतद्	-11.3229
▁फ्रांस	-11.3229
▁अरनाथस्य	-11.323
▁क्वचिद	-11.3231
▁द्विविधम्	-11.3231
▁येषाम्	-11.3233
वर्षीय	-11.3234
▁समाधिः	-11.3235
यजमान	-11.3236
▁सुकुमार	-11.3236
▁प्रतीकार	-11.3236
ाइट्	-11.3236
▁मतेन	-11.324
साहाय्येन	-11.3241
▁प्रतीतिः	-11.3241
▁सन्देहः	-11.3243
▁करिष्ये	-11.3244
▁सुप्त	-11.3245
▁प्राङ्गणे	-11.3246
▁निरूपिताः	-11.3248
▁सम्मानित	-11.3248
निर्यास	-11.325
▁अध्यापन	-11.325
▁कदली	-11.325
▁पुरस्कारः	-11.3251
धेय	-11.3252
▁तिरुव	-11.3253
भवेत्	-11.3253
▁ब्राह्म	-11.3254
ाञ्चल	-11.3255
▁कृष्णेन	-11.3255
▁प्राथमिकशिक्षण	-11.3255
▁आशय	-11.3256
▁रागस्य	-11.3257
▁विक्रयणं	-11.3261
▁आदेशेन	-11.3264
महे	-11.3267
▁दृश्यम्	-11.3269
▁अभ्यासः	-11.327
▁क्षम	-11.3272
▁मातरं	-11.3273
विक्रय	-11.3273
लिंग	-11.3277
▁संशोधनस्य	-11.3277
▁अधिकाराः	-11.3279
XB	-11.3279
▁ननु	-11.3279
▁वृन्दावन	-11.328
निर्वचन	-11.3282
पत्रम्	-11.3284
▁क्रोधः	-11.3288
दिशति	-11.3288
ान्तःकरण	-11.329
पृष्ठ	-11.3291
▁क्रियमाणानि	-11.3291
▁इन्स्टिट्यूट्	-11.3295
▁यवनालः	-11.3295
ver	-11.3295
▁कर्गज	-11.3295
▁नन्दादेवी	-11.3296
▁अग्रिमश्लोक	-11.3296
▁आत्मसाक्षात्कार	-11.3296
▁स्वपितु	-11.3296
▁विग्रहराजस्य	-11.3297
निर्झर	-11.3297
▁विशिष्टानि	-11.3297
गुरवः	-11.3297
▁बृहत्तमा	-11.3298
विसर्जन	-11.3298
▁सम्बोधय	-11.3298
▁शतश	-11.33
▁यापितवान्	-11.3301
चैतन्य	-11.3303
संस्कृत्या	-11.3306
घटित	-11.3306
▁नगरीय	-11.3306
▁सम्पद	-11.3308
▁अयोध्याया	-11.3308
▁प्राणान्	-11.331
स्थानीय	-11.331
्रियमाण	-11.3311
प्रसूत	-11.3311
▁प्रस्थान	-11.3312
▁प्रतिपद	-11.3313
▁जनरल्	-11.3313
▁Ret	-11.3314
रक्षणाय	-11.3316
▁83	-11.3316
संसार	-11.3317
▁छात्रवृत्ति	-11.3317
▁नामधेय	-11.3318
▁कालेन	-11.3321
परिश्रम	-11.3321
▁राष्ट्रियराजमा	-11.3322
्यताम्	-11.3325
▁संरक्ष	-11.3326
▁पुत्रेण	-11.3327
du	-11.3329
हिंसायाः	-11.3329
▁प्रतिपादिता	-11.3329
▁उदयपुर	-11.333
डू	-11.3335
ुत्त	-11.3341
वर्गीय	-11.3341
न्नपि	-11.3342
वृण	-11.3342
निर्माणम्	-11.3346
▁स्थितवान्	-11.3347
▁माग	-11.3348
▁निग्रह	-11.335
▁रहस्यं	-11.3352
यन्त्राणि	-11.3352
स्थानमस्ति	-11.3353
▁प्राप्नुवन्	-11.3355
▁आम्रफल	-11.3357
उद्यम	-11.3357
भिमत	-11.3358
▁मस्जिद्	-11.3359
▁स्वराज्य	-11.3361
चेष्टा	-11.3362
▁डै	-11.3364
वराहमिहिर	-11.3364
▁प्रादर्शयत्	-11.3364
▁झवेर	-11.3364
▁द्रविड	-11.3364
▁कॉलेज्	-11.3364
▁भृश	-11.3364
▁तमिळनाडु	-11.3367
▁गुप्तचर	-11.3367
दशक	-11.3368
व्यापृत	-11.3368
▁कृषिप्रधान	-11.3369
स्तान्	-11.3369
▁देहिन	-11.3369
▁सृष्टेः	-11.337
▁भगवते	-11.337
▁ज्ञानयोग	-11.3371
▁4000	-11.3373
▁काव्यप्रकाश	-11.3374
▁प्रतिपादितवान्	-11.3379
साइ	-11.338
▁जीवात्मा	-11.3381
▁उल्लङ्घ	-11.3384
▁वीक्षणीय	-11.3384
▁स्वराज्यं	-11.3384
▁प्रपात	-11.3385
▁पुरोहित	-11.3385
शिखराणि	-11.3386
प्रक्रियायां	-11.3387
कार्याय	-11.3389
तत्त्वानि	-11.339
▁इत्याख्ये	-11.3391
▁आवा	-11.3392
ष्यसि	-11.3393
बसव	-11.3393
ोद्देश	-11.3395
▁शरीरेण	-11.3396
▁आरोह	-11.3396
▁प्रपञ्चे	-11.3397
▁उपयुज्यमान	-11.3398
▁शिक्षित	-11.3403
रक्षणस्य	-11.3406
▁समाप्ते	-11.3408
▁बेङ्गळूरुतः	-11.3409
▁स्वहस्त	-11.3409
▁अस्वस्थ	-11.3412
ङ्गार	-11.3416
▁सङ्घर्षः	-11.3419
▁पूर्वी	-11.342
चुर	-11.342
मपेक्ष	-11.3421
वासिनां	-11.3422
बुध	-11.3423
▁प्रशिक्षण	-11.3424
▁विस्फोट	-11.3424
▁इतीय	-11.3426
▁स्मरणीय	-11.3426
▁कृष	-11.3428
श्वघोष	-11.3428
वन्यजीवाभयारण्य	-11.3433
▁प्रात	-11.3433
▁पतञ्जले	-11.3434
▁प्रदत्तं	-11.3434
▁1944	-11.3436
▁विद्वद्भिः	-11.3436
▁आगस्ट	-11.3437
▁पाताल	-11.3438
▁व्याकुल	-11.3438
▁नीलगिरि	-11.3439
▁अटित	-11.344
▁नियमानां	-11.3441
▁अग्रजः	-11.3442
▁मानसा	-11.3442
▁इत्यासीत्	-11.3442
▁प्रदत्तवान्	-11.3443
▁एकतायाः	-11.3446
▁सहकार	-11.3448
विरोधिनः	-11.3448
▁मीमांसका	-11.3449
राज्ञां	-11.345
भृत्य	-11.345
▁तैत्तिरीयसंहिता	-11.3451
▁इत्यस्ति	-11.3453
▁सिङ्ग	-11.3454
प्रतिशत	-11.3454
▁तीर्थस्य	-11.3456
▁बलेन	-11.3459
पेटे	-11.3461
विद्वान्	-11.3461
यत्र	-11.3461
पट्टिकाया	-11.3462
मुद्दिश्य	-11.3463
▁चान्द	-11.3465
शासनकाले	-11.3466
हिम	-11.3466
▁क्रीडाया	-11.3467
▁व्यापारस्य	-11.3471
▁मुग्ध	-11.3471
▁शौच	-11.3473
ग्रीव	-11.3474
▁झारखण्ड	-11.3475
▁आग्रहेण	-11.3477
त्रापि	-11.348
▁प्रयत्नः	-11.3481
▁तमवर्षे	-11.3481
▁गोण्ड	-11.3483
▁इमम्	-11.3483
र्स	-11.3484
प्राग	-11.3484
▁नामान्तरम्	-11.3484
▁ज्यौतिष	-11.3485
▁अर्च	-11.3486
राशे	-11.3489
▁प्रार्थित	-11.3491
▁तमिळुनाडुराज्य	-11.3492
▁विष्णो	-11.3493
डाई	-11.3493
▁इतिहासकार	-11.3494
रासोकाव्ये	-11.3499
▁ऊढ	-11.35
देवालयाः	-11.35
कर्त	-11.3502
▁अफ्रीका	-11.3503
▁कृष्याधारिता	-11.3503
▁दैत्य	-11.3503
▁मेघालयराज्य	-11.3503
जन्तवः	-11.3503
▁उत्पादक	-11.3503
आयर्लैण्ड	-11.3503
महाकाव्ये	-11.3503
परमेश्वर	-11.3503
जनपदे	-11.3504
▁अजन्ता	-11.3504
ागमन	-11.3505
▁केरळराज्यस्य	-11.3505
भगवद्दूत	-11.3505
▁भगवति	-11.3506
▁शिलान्यास	-11.3506
गोण्ड	-11.3508
सीम	-11.3511
बान्धव	-11.3512
▁दक्षिणहस्त	-11.3513
▁विदेशेषु	-11.3514
सत्ताया	-11.3515
▁अध्ययनस्य	-11.3515
षेण	-11.3515
▁नृत्यम्	-11.3516
त्वादि	-11.3516
▁इङ्ग्लेण्ड्	-11.3518
▁गान्धिन	-11.3518
▁योज	-11.3521
खान्	-11.3522
स्पष्ट	-11.3522
▁श्रीरामस्य	-11.3524
▁संरक्षणं	-11.3526
▁अभियुक्त	-11.3529
संस्थासु	-11.353
▁निर्वाचितः	-11.3531
ोपासना	-11.3532
मण्डलत्वेन	-11.3533
▁तत्रत्या	-11.3535
गणपतिः	-11.3535
▁नेपाली	-11.3539
▁उपयोगेन	-11.3543
▁ताम	-11.3543
▁मासिक	-11.3543
▁आयु	-11.3544
व्रीहिः	-11.3545
▁पदार्थस्य	-11.3549
स्पृश्य	-11.3549
▁व्यापारिक	-11.3549
वंशीयः	-11.3555
सैनिकान्	-11.3556
▁समाप्तम्	-11.3556
▁आसक्तः	-11.3562
▁कार्यशाला	-11.3562
▁उपमान	-11.3563
रोहण	-11.3563
▁नामकम्	-11.3565
▁भारतीयदर्शन	-11.3567
▁जन्मना	-11.3571
▁सूर्यमन्दिर	-11.3571
▁ऋग्	-11.3572
क्रिकेट्	-11.3574
▁तादात्म्य	-11.3574
▁सात्विक	-11.3574
इण्डो	-11.3575
▁वेत्ति	-11.3577
▁1925	-11.3578
rd	-11.3578
▁आकर्षणीय	-11.3578
▁करिष्यन्ति	-11.3579
▁मानवनिर्मित	-11.358
ाद्रिः	-11.358
पूजन	-11.3581
▁अविस्मरणीय	-11.3581
▁विशाखापत्तन	-11.3582
▁एकादश्यां	-11.3582
द्वेष	-11.3584
▁विरोधी	-11.3586
▁धर्माणां	-11.3586
▁भवतो	-11.3588
▁केदारनाथ	-11.3588
नाशक	-11.359
▁उपभोग	-11.359
विज्ञानिनः	-11.359
▁स्वीकृतवन्तः	-11.3593
वाक्	-11.3593
▁संयम्य	-11.3594
▁कुमारपालः	-11.3597
पराधीन	-11.3597
▁विशिष्टाः	-11.3598
कल्पित	-11.3599
▁चाप	-11.3599
कुण्डल	-11.361
▁विलम्बेन	-11.3619
न्यत्र	-11.3624
ांशाः	-11.3625
▁दग्ध	-11.3627
▁नयति	-11.3628
▁सृष्टिः	-11.3631
▁पुष्कर	-11.3631
▁हिमालयः	-11.3636
सङ्घटनस्य	-11.3636
सूचना	-11.3637
स्त्रिय	-11.3638
उत्सव	-11.3639
मन्दिराणां	-11.364
प्रतिनिधि	-11.3643
पञ्चायत	-11.3644
▁गन्तव्य	-11.3644
डाक्टरेट्	-11.3644
▁तुङ्गभद्रा	-11.3644
▁अवाप्नोत्	-11.3644
▁सेनगुप्ता	-11.3644
▁शान्तिनिकेतन	-11.3645
▁दोड्ड	-11.3645
▁अन्विष्ट	-11.3645
बिहार	-11.3646
▁मीमांसादर्शन	-11.3646
ोत्कर्ष	-11.3646
▁मुकुट	-11.3647
▁बभूवुः	-11.3648
आन्दोलने	-11.3649
▁सौम्य	-11.3649
▁कन्नडभाषया	-11.3649
▁आधिक्य	-11.3649
▁प्रभु	-11.3651
▁अविनाशि	-11.3657
▁अजमेर	-11.3657
ाऽऽसीत्	-11.3658
चिन्ता	-11.3658
▁महो	-11.3659
▁भोजनालय	-11.366
▁नृ	-11.3661
▁अष्टाविंशतितम	-11.3664
▁द्वादश्या	-11.3664
मज्ज	-11.3665
▁औन्नत्यम्	-11.3666
सृत्य	-11.3666
▁एतया	-11.3666
▁विकसिता	-11.3669
▁परिध	-11.3669
वज्र	-11.3669
ावशेषाः	-11.367
▁स्कन्दपुराण	-11.3672
▁ब्रह्मपुरम्	-11.3673
▁दोल	-11.3673
▁अध्ययनेन	-11.3675
▁अन्वेषणं	-11.3677
▁रोह	-11.3678
▁अस्त	-11.368
गतेः	-11.3681
▁कर्मकाण्ड	-11.3681
सक्ताः	-11.3683
▁भिन्नता	-11.3685
निर्माणार्थं	-11.369
▁प्रकोष्ठे	-11.3691
▁यूरोप्	-11.3691
▁पुनरप	-11.3696
▁प्रदर्शिता	-11.3698
▁प्रसृता	-11.37
▁शिक्षणस्य	-11.3702
▁निर्माणकार्यं	-11.3704
▁ऋचा	-11.3704
बाह्य	-11.3707
▁केरळराज्य	-11.3709
▁अरुण	-11.3711
ापराध	-11.3715
▁व्यूह	-11.3716
▁कार्त्तिक	-11.3716
▁कासिन्स	-11.3716
▁जानीमः	-11.3716
▁डिब्रुगढ	-11.3716
तृण	-11.3716
▁शास्त्रस्य	-11.3717
▁1924	-11.3719
▁दिशा	-11.3719
सेवक	-11.3719
ant	-11.3721
निर्भर	-11.3723
▁रक्षणाय	-11.3723
वंशजाः	-11.3724
▁मीटरमित	-11.3725
▁क्रिस्तीय	-11.3725
▁प्रस्थितवान्	-11.3729
▁प्रवृद्ध	-11.3731
स्तेन	-11.3731
वादक	-11.3733
▁प्रतिशोध	-11.3734
▁अधिवेशने	-11.3736
▁द्विसहस्र	-11.3738
पशु	-11.3742
▁कार्यक्रमः	-11.3744
▁दशममण्डल	-11.3744
ावेव	-11.375
▁देवराज	-11.3753
▁अध्यक्षपद	-11.3753
विविध	-11.3755
वर्जित	-11.3759
▁कन्यायाः	-11.376
▁निरुक्ते	-11.3764
▁इयमेव	-11.3764
विषयिणी	-11.3764
▁अर्णोराजस्य	-11.3767
▁चतुरः	-11.3768
रेन्	-11.3769
▁130	-11.3771
▁नेपालदेश	-11.3774
▁खण्डेषु	-11.3776
▁क्षेत्रीय	-11.3779
▁लेखाः	-11.378
शल्य	-11.3781
▁राज्याभिषेकः	-11.3784
ैतिहासिक	-11.3788
▁शक्नोमि	-11.3788
▁ढाका	-11.3788
▁विनोबा	-11.3788
▁शाहजहान	-11.3788
रन्ध्र	-11.3788
▁ह्रस्व	-11.3788
वित्तीय	-11.3789
▁वीथी	-11.3789
▁निर्मीयन्ते	-11.379
प्रयुक्त	-11.3791
▁1935	-11.3791
तस्मिन्	-11.3792
▁तीर्थङ्कराः	-11.3794
दार्शनिक	-11.3796
▁तदनुसार	-11.3797
शकुन	-11.3798
▁षष्ठी	-11.3799
▁टिबेट्	-11.3799
सञ्चर	-11.3804
▁गणितस्य	-11.3806
▁उपसर्ग	-11.3807
▁आश्रमस्य	-11.3808
▁ग्रन्थेऽस्मिन्	-11.3809
▁तदु	-11.3814
ायुष	-11.3815
भ्	-11.3819
ोऽन	-11.382
▁प्रयोगशालाया	-11.3823
दिशायां	-11.3823
यन्तु	-11.3825
▁इत्यादिना	-11.3826
▁एवाऽस्ति	-11.3831
िन्याः	-11.3831
▁पोषक	-11.3831
▁साक्षी	-11.3836
▁क्रीडका	-11.3836
▁कथनस्य	-11.3837
त्वाद	-11.3839
▁चतुर्विंशतितम	-11.384
▁चणकः	-11.384
▁अभयारण्ये	-11.384
▁उद्धृत	-11.3841
▁हेमचन्द्राचार्य	-11.3843
कतामूर्तिप्रकल्प	-11.3843
▁राजानं	-11.3843
क्कु	-11.3844
त्रिक	-11.3844
▁शान्तिनाथस्य	-11.3845
▁महात्मागान्ध	-11.3845
स्वयंसेवकसङ्घस्य	-11.3846
▁स्वातन्त्र	-11.3848
▁देही	-11.3849
au	-11.3849
किलोमीटर	-11.3853
▁प्रारब्धा	-11.3855
ine	-11.3856
ेऽब्दे	-11.386
▁ख्रीष्ट	-11.386
प्रथ	-11.386
▁तुमकूरुमण्डल	-11.386
▁दारिद्र्य	-11.386
▁म्रियते	-11.386
ज्यायसी	-11.386
▁आदिशत्	-11.386
▁कानिचित्	-11.386
▁चमोली	-11.386
▁आकाशवाण्या	-11.3861
सामग्र्य	-11.3861
▁विचलित	-11.3861
विच्छेद	-11.3862
▁स्वामिन	-11.3862
यिष्यामि	-11.3862
▁योजयितुं	-11.3862
▁1938	-11.3863
▁सदाशिव	-11.3864
निवासी	-11.3866
▁द्रष्टव्य	-11.3867
▁प्रेरयति	-11.3867
न्यायालय	-11.3868
▁विप्रो	-11.3871
हिन्दू	-11.3871
फर	-11.3872
शत्रु	-11.3872
▁नागाल्याण्ड्	-11.3873
▁राष्ट्रियपर्व	-11.3873
▁वरिष्ठ	-11.3873
यवन	-11.3878
िरे	-11.3879
ाद्रि	-11.3881
▁खेद	-11.3882
जलेन	-11.3886
▁स्वकर्तव्य	-11.3886
▁अतिरिक्त	-11.3886
कविना	-11.3887
▁गुरुद्वार	-11.3889
स्वयंसेवक	-11.3889
टङ्क	-11.3891
▁किशोरावस्था	-11.3892
▁द्वित्र	-11.3894
▁सर्गाः	-11.3895
▁मर्यादा	-11.3898
▁मान्य	-11.3898
▁प्रतिक्षण	-11.3898
▁मुस्लिमलीग	-11.3901
▁मुख्यमन्त्रि	-11.3902
▁शिक्षणक्षेत्रे	-11.3905
▁निदान	-11.391
दर्शित	-11.3911
▁तले	-11.3914
▁पर्णानि	-11.3914
▁कृषिकार्ये	-11.3915
▁विक्रयण	-11.3915
काङ्क्ष	-11.3917
▁अधीने	-11.3918
खाद्य	-11.3919
क्रीडोत्सव	-11.3921
▁विकासस्य	-11.3922
▁रेड्डि	-11.3922
▁कृष्णवर्णीय	-11.3924
हावडा	-11.3924
सम्पन्ना	-11.3925
▁प्रतीतो	-11.3926
श्रु	-11.3926
इत्यस्य	-11.3927
चयन	-11.3928
▁परिसरः	-11.3929
धातू	-11.393
▁यान्ति	-11.3932
▁आकृष्टः	-11.3933
▁इत्यर्थ	-11.3933
▁कैकेयी	-11.3933
▁प्रस्तौति	-11.3933
▁तदुक्तं	-11.3933
▁प्रसारित	-11.3934
▁अन्धविश्वास	-11.3934
▁ध्वस्त	-11.3934
▁भारतीयैः	-11.3935
विरचित	-11.3935
▁वेणु	-11.3936
▁वायौ	-11.3936
▁अश्वत्थ	-11.3937
▁वस्तूनाम्	-11.3937
▁विलोक्य	-11.3939
▁अभिवृद्ध	-11.394
मतीव	-11.3942
▁भगिन्य	-11.3942
▁समाजवाद	-11.3942
तान्त्रिक	-11.3946
▁निष्पक्ष	-11.3947
day	-11.3948
रग	-11.3948
पुत्राः	-11.3949
▁सुभद्राया	-11.395
मनोहर	-11.395
ैवास्ति	-11.3951
▁भारतीयराष्ट्रिय	-11.3951
ाकाङ्क्ष	-11.3952
▁स्पष्टम्	-11.3953
क्रान्तिकारिभिः	-11.3955
▁हिन्दुस्थान	-11.3955
सायण	-11.3956
ोत्पादने	-11.3958
rt	-11.3962
▁कलात्मक	-11.3964
▁पीडय	-11.3965
शृङ्खला	-11.3967
ायतन	-11.397
गुरोः	-11.3972
▁अमुक	-11.3972
▁निमेष	-11.3973
▁आञ्जनेय	-11.3973
सप्तम	-11.3978
▁सेतु	-11.3978
ोल्लेखः	-11.398
यात्राया	-11.3982
जानी	-11.3982
काष्ठ	-11.3985
▁अनुमानम्	-11.3987
स्पृष्ट	-11.3988
▁विशेषेण	-11.3992
बृहती	-11.3993
▁एकादशदिन	-11.3995
▁आकृष्ट	-11.3995
्युत्सव	-11.3996
ान्तः	-11.3996
▁तमिल	-11.3997
▁प्रासादे	-11.3999
▁मरणोत्तर	-11.4
▁चम्बल	-11.4
ərə	-11.4005
विशाल	-11.4005
सतपुडा	-11.4007
▁डार्जिलिङ्ग	-11.4007
▁वैशम्पायन	-11.4007
▁वर्तेते	-11.4007
▁अजानात्	-11.4007
▁ताजमहल्	-11.4007
हंस	-11.4007
▁धर्मपुरीमण्डल	-11.4007
▁1981	-11.4008
▁वैदर्भ	-11.4008
▁1995	-11.4009
▁1983	-11.4009
▁जानकी	-11.4009
▁अधिनियम	-11.401
▁एतेभ्यः	-11.401
▁अभिज्ञात	-11.4011
▁खल्व	-11.4011
व्यभिचारि	-11.4011
कूप	-11.4014
▁हठ	-11.4016
▁उपाधिः	-11.4017
▁ऐबक्	-11.4018
▁कृषकाणां	-11.4019
निधिः	-11.402
▁सूचितवान्	-11.402
देशीयानां	-11.4021
▁काश्या	-11.4022
इतिहास	-11.4026
▁गीताशास्त्र	-11.4026
धारित	-11.403
ललाट	-11.4031
▁पञ्चसु	-11.4033
ेरन्	-11.4034
▁गीतायां	-11.4035
▁समर्पय	-11.4038
खास	-11.4038
भृ	-11.4043
▁सोपानानि	-11.4043
नाम्नः	-11.4046
बाद	-11.4048
▁तदेत	-11.4049
▁दिगम्बर	-11.4053
कलासु	-11.4053
द्योतक	-11.4055
बिन्	-11.4059
श्वेत	-11.4061
मुक्त्वा	-11.4063
▁उल्ल	-11.4065
मन्त्राः	-11.4065
गन्तव्य	-11.4067
ावलोकन	-11.4069
▁स्वकीये	-11.4069
▁स्फूर्ति	-11.407
▁पत्रिकायां	-11.4071
▁इट	-11.4074
▁सम्प्रदायः	-11.4077
विद्युदुत्पादन	-11.4081
▁उद्घुष्ट	-11.4081
▁जहङ्गीर	-11.4081
भाईकाका	-11.4081
▁प्राचलत्	-11.4081
▁उभावपि	-11.4081
▁यद्यप्य	-11.4081
▁अटूर्	-11.4081
▁क्वथित	-11.4081
▁आतङ्क	-11.4081
▁साहित्यकार	-11.4081
पारिजात	-11.4081
▁रुद्रप्रयाग	-11.4081
▁सरस्वत्याः	-11.4082
कङ्कण	-11.4082
▁किलोमीटर्दूरे	-11.4083
▁प्राक्तन	-11.4084
▁पृथ्वीराजरासो	-11.4085
▁आस्वाद	-11.4086
▁चालुक्यवंशीय	-11.4087
▁खादन्ति	-11.4087
▁निर्मिते	-11.4089
▁दद	-11.409
नासिक	-11.4091
▁तत्तद्	-11.4092
▁सर्वोत्तम	-11.4092
▁?”	-11.4093
▁तत्तत्	-11.4095
गच्छन्त	-11.4095
व्याघ्र	-11.4095
पतिना	-11.4097
▁सस्योत्पादन	-11.41
वार्तिक	-11.41
वर्धत	-11.4101
▁ऐतिहासिकानि	-11.4102
ाव्	-11.4102
▁प्रथमस्थान	-11.4103
▁आदिन	-11.4103
िष्णु	-11.4104
ram	-11.4104
ष्यति	-11.4106
▁नियमेन	-11.4107
▁जेतु	-11.4107
समृद्धि	-11.4108
▁किञ्चित्काल	-11.4109
ध्यात्म	-11.411
mə	-11.411
▁मध्यकाले	-11.411
▁पवित्रतम	-11.4111
▁परिष्कार	-11.4112
गोप	-11.4113
▁भण	-11.4116
सभ	-11.4123
▁कैमास	-11.4123
▁द्वादशवर्ष	-11.4124
▁प्रयोजनम्	-11.4124
त्यन्त	-11.4125
▁भवने	-11.4125
मतेन	-11.4126
▁निकटे	-11.4126
रियन्	-11.4126
नाम्नी	-11.4126
▁केऽपि	-11.4127
▁आम्रफलं	-11.4127
▁विशाख	-11.4127
▁110	-11.4132
▁यैः	-11.4132
▁भूकम्पः	-11.4134
तनय	-11.4134
▁घटनाया	-11.4135
प्रक्रियया	-11.4136
▁सद्भाव	-11.4136
▁अन्तर्भाग	-11.4139
ज्ञाना	-11.414
निर्वहण	-11.4141
▁सोदर	-11.4143
▁नाभि	-11.4144
▁भागत्रय	-11.4146
▁जीवविज्ञान	-11.4149
▁माधुर्य	-11.4149
▁परिक्रम	-11.4151
▁गोलक	-11.4153
काडु	-11.4153
▁पात्रम्	-11.4155
▁पेरम्बलूरुमण्डल	-11.4156
सार्वभौम	-11.4156
▁अमिलत्	-11.4156
▁रशियादेश	-11.4156
▁राञ्ची	-11.4156
▁काफीपेय	-11.4156
▁एकतामूर्तेः	-11.4156
▁बांला	-11.4156
▁अपभ्रंश	-11.4157
▁उद्धरण	-11.4157
▁कर्तव्यपालन	-11.4158
▁दृष्टिः	-11.4159
देवतायाः	-11.416
▁गतवन्तौ	-11.4161
शिनः	-11.4161
▁कोझीकोड	-11.4162
▁शक्याः	-11.4163
मार्गेषु	-11.4165
▁सार्व	-11.4168
श्रौतसूत्र	-11.4169
▁वैशाख	-11.4172
▁कस्यचिद्	-11.4173
▁निर्देशकः	-11.4174
ज्योतिर्लिङ्ग	-11.4177
▁कुट्ट	-11.4182
स्थानि	-11.4184
ग्रन्थौ	-11.4186
▁अभेद	-11.4187
▁चास्य	-11.4187
पतयः	-11.4188
महाराजेन	-11.4188
गुच्छ	-11.4194
निवेश	-11.4194
▁यन्त्रागाराः	-11.4196
कर्तृक	-11.4199
भवद्	-11.4201
▁गान्धार	-11.4204
▁बहव्य	-11.4205
▁प्रभुत्व	-11.4206
▁हस्तगत	-11.4211
▁शिवमोग्ग	-11.4213
▁अस्तु	-11.4213
मनसा	-11.4216
मधु	-11.4217
रुढ	-11.4218
▁परिवर्तितम्	-11.4218
indian	-11.4218
युद्धकाले	-11.4221
पतित	-11.4221
▁अङ्गीकृतम्	-11.4222
▁पौष	-11.4222
▁प्रश्नाना	-11.4229
▁दम्पत्यो	-11.4231
▁नेमिकुमार	-11.4231
▁सञ्योजत	-11.4231
▁भगवतीचरण	-11.4231
▁आर्यभट	-11.4231
▁सङ्घटित	-11.4232
▁परोपकार	-11.4233
▁भारतीयजनतापक्षः	-11.4233
▁अलीगढ	-11.4234
▁1926	-11.4234
षड्	-11.4236
ानुगुणम्	-11.4236
har	-11.4236
▁स्वाध्याय	-11.4237
ष्वपि	-11.4238
मल्लिकार्जुन	-11.4238
ोऽभि	-11.424
▁वीररस	-11.424
▁शची	-11.424
▁सर्वेषाम	-11.4241
▁हिङ्गु	-11.4246
▁परिवर्तितः	-11.4247
▁सुतरा	-11.4248
▁हासनमण्डल	-11.4249
▁अनुशासन	-11.4249
▁प्रान्तीय	-11.4252
▁अन्यस्मिन्	-11.4253
मीटर्	-11.4253
ुपलब्ध	-11.4257
per	-11.4257
▁आयुध	-11.4258
चतुर्दश	-11.4261
नेट्	-11.4262
लेप	-11.4264
▁जम्बूद्वीप	-11.4264
▁दिमा	-11.4267
ोल्लेख	-11.427
हन्ता	-11.4271
▁निर्दिष्टम्	-11.4271
▁उत्तरकन्नड	-11.4276
▁दर्शनशास्त्र	-11.4278
▁जितवान्	-11.428
दैवत	-11.428
▁साल	-11.4282
▁गात्र	-11.4282
▁ज्ञानी	-11.4289
▁कोपि	-11.4291
▁मार्च्	-11.4292
▁समक्षं	-11.4293
मतानुसारं	-11.4294
▁केरलराज्य	-11.4295
▁बन्दि	-11.4296
रूपो	-11.4296
ोत्सवस्य	-11.4298
▁संरचना	-11.4298
▁अग्रेसर	-11.4299
▁सूत्रेण	-11.4299
▁स्निग्ध	-11.4299
▁कथनेन	-11.4299
▁वाणिज्यकेन्द्र	-11.4303
▁चिक्कमगळूरु	-11.4304
गोदावर	-11.4306
▁अभिषेक	-11.4306
▁काठिन्य	-11.4306
▁जतीन्द्र	-11.4306
▁भारद्वाज	-11.4306
▁अभिमान	-11.4306
बिस्मिल्ला	-11.4307
▁आचरति	-11.4307
▁तिरस्कृत	-11.4307
▁विराजन्ते	-11.4308
▁जिन्ना	-11.4308
▁राष्ट्रभक्त	-11.4309
▁फिरोजपुर	-11.431
▁निराश	-11.4311
▁हस्तनिर्मित	-11.4313
गोकाक	-11.4313
▁भीष्मः	-11.4315
▁भूतपूर्व	-11.4316
▁उभे	-11.4317
▁विद्याधर	-11.4317
▁प्रह्लाद	-11.4318
▁तारक	-11.4319
▁वक्तव्यम्	-11.4319
प्राकृत	-11.4321
वंशज	-11.4323
▁अहमदाबाद्	-11.4324
▁मानवाः	-11.4325
▁बेट	-11.433
▁गुजरातराज्यं	-11.4334
द्राविड	-11.4334
▁साक्ष्य	-11.4334
भूष	-11.4335
[...]
